{"_source":"nvidia/parakeet-tdt-0.6b-v3/tokenizer.json","_source_sha256":"bd321b096832a3f270bd3b2a88823957920f1a5c5ada71114a26ea729d0cbe91","byte_fallback":true,"fuse_unk":true,"ignore_merges":false,"metaspace":"▁","merges":[["e","n"],["▁","s"],["▁","d"],["e","r"],["▁","p"],["▁","a"],["▁","t"],["i","n"],["▁","m"],["e","s"],["a","n"],["▁","n"],["▁","v"],["a","r"],["▁","k"],["o","n"],["i","s"],["e","t"],["e","l"],["▁","l"],["o","r"],["a","l"],["a","t"],["a","s"],["▁","c"],["▁","o"],["▁","j"],["i","t"],["▁","b"],["▁","h"],["i","e"],["i","l"],["r","e"],["▁","u"],["o","s"],["▁","f"],["c","h"],["e","m"],["▁","i"],["o","m"],["r","a"],["t","e"],["a","m"],["▁","g"],["▁","de"],["▁d","e"],["a","d"],["r","o"],["t","i"],["▁","z"],["u","s"],["o","l"],["▁","e"],["e","d"],["t","a"],["▁","w"],["▁","п"],["r","i"],["u","n"],["l","i"],["▁","н"],["▁","in"],["▁i","n"],["i","d"],["▁","с"],["l","e"],["▁","в"],["a","k"],["en","t"],["q","u"],["т","о"],["▁","S"],["u","r"],["i","k"],["▁","A"],["▁","se"],["▁s","e"],["i","m"],["o","d"],["c","i"],["u","t"],["▁","un"],["▁u","n"],["o","v"],["▁","je"],["▁j","e"],["u","l"],["▁","M"],["▁","T"],["▁","na"],["▁n","a"],["o","t"],["▁","D"],["▁","д"],["▁","E"],["▁","qu"],["▁q","u"],["▁","en"],["▁e","n"],["e","st"],["es","t"],["▁","to"],["▁t","o"],["e","g"],["s","t"],["a","i"],["a","g"],["i","j"],["р","а"],["▁","P"],["т","а"],["▁","r"],["u","d"],["e","k"],["i","g"],["▁","τ"],["▁","I"],["in","g"],["▁","N"],["н","и"],["a","v"],["u","m"],["к","о"],["i","a"],["h","e"],["т","е"],["н","о"],["▁","на"],["▁н","а"],["в","а"],["▁","la"],["▁l","a"],["р","о"],["▁","з"],["o","g"],["▁","о"],["i","st"],["is","t"],["i","r"],["▁","м"],["d","e"],["▁","и"],["l","a"],["i","c"],["▁","st"],["▁s","t"],["▁","J"],["▁","at"],["▁a","t"],["▁","po"],["▁p","o"],["▁","ne"],["▁n","e"],["▁","pr"],["▁p","r"],["▁","an"],["▁a","n"],["л","и"],["▁","al"],["▁a","l"],["a","j"],["т","и"],["i","v"],["▁","C"],["р","е"],["j","e"],["▁","по"],["▁п","о"],["к","а"],["н","а"],["▁","es"],["▁e","s"],["a","nd"],["an","d"],["▁","H"],["▁","B"],["▁","re"],["▁r","e"],["ο","υ"],["o","k"],["▁","K"],["▁","on"],["▁o","n"],["n","e"],["▁","pro"],["▁p","ro"],["▁pr","o"],["t","o"],["▁","б"],["a","b"],["▁","π"],["o","u"],["▁","L"],["г","о"],["t","er"],["te","r"],["i","en"],["ie","n"],["▁","que"],["▁q","ue"],["▁qu","e"],["▁","V"],["▁","da"],["▁d","a"],["j","a"],["n","a"],["k","a"],["р","и"],["▁","par"],["▁p","ar"],["▁pa","r"],["▁","su"],["▁s","u"],["▁","O"],["▁","et"],["▁e","t"],["i","on"],["io","n"],["▁","ja"],["▁j","a"],["ν","α"],["▁","α"],["▁","do"],["▁d","o"],["▁","y"],["▁","el"],["▁e","l"],["r","u"],["▁","é"],["c","e"],["▁","κ"],["▁","di"],["▁d","i"],["▁","σ"],["s","e"],["▁","er"],["▁e","r"],["с","т"],["m","a"],["▁","con"],["▁c","on"],["▁co","n"],["▁","ε"],["n","o"],["a","p"],["▁","si"],["▁s","i"],["е","н"],["m","e"],["▁","te"],["▁t","e"],["n","i"],["▁","ч"],["▁","le"],["▁l","e"],["▁","μ"],["▁","ma"],["▁m","a"],["ä","n"],["▁","sp"],["▁s","p"],["▁","за"],["▁з","а"],["o","st"],["os","t"],["e","nd"],["en","d"],["k","o"],["a","re"],["ar","e"],["▁","com"],["▁c","om"],["▁co","m"],["k","e"],["▁","no"],["▁n","o"],["ä","r"],["л","а"],["e","rs"],["er","s"],["▁","G"],["▁","sa"],["▁s","a"],["▁","W"],["▁","ir"],["▁i","r"],["e","re"],["er","e"],["▁","vi"],["▁v","i"],["▁","li"],["▁l","i"],["▁","не"],["▁н","е"],["▁","ž"],["▁t","he"],["▁th","e"],["v","e"],["▁","is"],["▁i","s"],["▁","for"],["▁f","or"],["▁fo","r"],["o","b"],["л","е"],["в","о"],["s","i"],["α","ι"],["▁","F"],["▁","il"],["▁i","l"],["▁","U"],["▁","R"],["т","ь"],["a","li"],["al","i"],["i","ne"],["in","e"],["s","a"],["▁","ко"],["▁к","о"],["▁","š"],["▁","me"],["▁m","e"],["v","a"],["an","t"],["v","o"],["ε","ι"],["e","ll"],["el","l"],["▁","vo"],["▁v","o"],["i","ll"],["il","l"],["▁","det"],["▁d","et"],["▁de","t"],["a","st"],["as","t"],["▁","ar"],["▁a","r"],["▁","î"],["z","e"],["▁","ra"],["▁r","a"],["h","o"],["j","u"],["ö","r"],["к","и"],["л","ь"],["▁","ni"],["▁n","i"],["в","и"],["л","о"],["▁","so"],["▁s","o"],["v","er"],["ve","r"],["▁","pre"],["▁p","re"],["▁pr","e"],["▁","я"],["▁","ta"],["▁t","a"],["▁","th"],["▁t","h"],["▁","е"],["t","u"],["▁","be"],["▁b","e"],["д","а"],["p","p"],["i","nd"],["in","d"],["g","e"],["▁","du"],["▁d","u"],["e","ss"],["es","s"],["k","s"],["▁","od"],["▁o","d"],["k","u"],["с","я"],["a","c"],["e","le"],["el","e"],["ι","α"],["z","y"],["r","an"],["ra","n"],["t","en"],["te","n"],["i","o"],["▁î","n"],["м","а"],["▁","and"],["▁a","nd"],["▁an","d"],["д","е"],["▁","ka"],["▁k","a"],["▁","да"],["▁д","а"],["д","и"],["a","te"],["at","e"],["i","z"],["i","te"],["it","e"],["s","k"],["e","nte"],["en","te"],["ent","e"],["▁","у"],["▁","za"],["▁z","a"],["▁","per"],["▁p","er"],["▁pe","r"],["▁","pri"],["▁p","ri"],["▁pr","i"],["▁","im"],["▁i","m"],["▁","som"],["▁s","om"],["▁so","m"],["d","a"],["▁","of"],["▁o","f"],["τ","α"],["▁","des"],["▁d","es"],["▁de","s"],["τ","ι"],["o","w"],["в","е"],["n","y"],["▁","op"],["▁o","p"],["τ","ε"],["▁","ob"],["▁o","b"],["▁","den"],["▁d","en"],["▁de","n"],["▁","ro"],["▁r","o"],["u","i"],["▁","до"],["▁д","о"],["a","z"],["▁","про"],["▁п","ро"],["ж","е"],["▁","ve"],["▁v","e"],["ã","o"],["▁","ko"],["▁k","o"],["i","em"],["ie","m"],["н","е"],["▁","ver"],["▁v","er"],["▁ve","r"],["▁d","ie"],["▁di","e"],["e","ns"],["en","s"],["▁","mo"],["▁m","o"],["▁","as"],["▁a","s"],["g","y"],["a","u"],["o","rt"],["or","t"],["▁","δ"],["▁","der"],["▁d","er"],["▁de","r"],["▁","ș"],["▁","van"],["▁v","an"],["▁va","n"],["▁","min"],["▁m","in"],["▁mi","n"],["▁","ch"],["▁c","h"],["i","er"],["ie","r"],["l","u"],["l","o"],["▁","og"],["▁o","g"],["▁","att"],["▁a","tt"],["▁at","t"],["▁","то"],["▁т","о"],["▁","č"],["j","i"],["p","r"],["▁","var"],["▁v","ar"],["▁va","r"],["d","u"],["▁","та"],["▁т","а"],["▁","tr"],["▁t","r"],["▁","ab"],["▁a","b"],["▁","om"],["▁o","m"],["▁","να"],["▁ν","α"],["щ","о"],["u","st"],["us","t"],["g","en"],["ge","n"],["▁","sk"],["▁s","k"],["м","и"],["á","l"],["d","en"],["de","n"],["f","f"],["▁","by"],["▁b","y"],["m","i"],["á","s"],["a","ti"],["at","i"],["▁","се"],["▁с","е"],["▁","und"],["▁u","nd"],["▁un","d"],["▁","το"],["▁τ","ο"],["▁","um"],["▁u","m"],["л","я"],["▁","est"],["▁e","st"],["▁es","t"],["г","а"],["a","ll"],["al","l"],["м","е"],["▁","iz"],["▁i","z"],["e","b"],["a","ns"],["an","s"],["▁","τη"],["▁τ","η"],["o","p"],["м","о"],["▁","мо"],["▁м","о"],["▁","от"],["▁о","т"],["g","a"],["▁","mu"],["▁m","u"],["▁","а"],["y","s"],["▁","pas"],["▁p","as"],["▁pa","s"],["▁","ка"],["▁к","а"],["▁","nu"],["▁n","u"],["▁","к"],["▁","Z"],["▁","del"],["▁d","el"],["▁de","l"],["▁","mi"],["▁m","i"],["d","z"],["g","ħ"],["▁","tal"],["▁t","al"],["▁ta","l"],["▁","med"],["▁m","ed"],["▁me","d"],["▁","tak"],["▁t","ak"],["▁ta","k"],["▁","och"],["▁o","ch"],["▁oc","h"],["k","t"],["▁","ac"],["▁a","c"],["▁","am"],["▁a","m"],["n","í"],["▁","au"],["▁a","u"],["n","d"],["π","ο"],["on","t"],["▁","man"],["▁m","an"],["▁ma","n"],["▁","pe"],["▁p","e"],["i","ti"],["it","i"],["▁κ","αι"],["▁κα","ι"],["▁","pod"],["▁p","od"],["▁po","d"],["s","z"],["▁","și"],["▁ș","i"],["e","j"],["k","i"],["▁","pl"],["▁p","l"],["▁","ku"],["▁k","u"],["▁","av"],["▁a","v"],["▁","ви"],["▁в","и"],["o","rd"],["or","d"],["h","a"],["▁","het"],["▁h","et"],["▁he","t"],["a","da"],["ad","a"],["τ","ο"],["ρ","ο"],["▁","pos"],["▁p","os"],["▁po","s"],["▁","т"],["t","ä"],["i","et"],["ie","t"],["c","ht"],["ch","t"],["a","le"],["al","e"],["р","у"],["i","na"],["in","a"],["c","k"],["p","o"],["▁","že"],["▁ž","e"],["w","a"],["ρ","α"],["▁","tu"],["▁t","u"],["a","de"],["ad","e"],["▁","nie"],["▁n","ie"],["▁ni","e"],["▁","έ"],["▁","sz"],["▁s","z"],["i","li"],["il","i"],["b","a"],["á","t"],["▁p","å"],["p","e"],["▁","ό"],["п","о"],["▁","ра"],["▁","ex"],["▁e","x"],["i","ja"],["ij","a"],["i","ss"],["is","s"],["▁","em"],["▁e","m"],["a","la"],["al","a"],["b","er"],["be","r"],["▁","ц"],["▁","we"],["▁w","e"],["g","i"],["▁","és"],["▁é","s"],["▁","ik"],["▁i","k"],["μ","α"],["ш","е"],["▁","os"],["▁o","s"],["▁","Т"],["▁","kom"],["▁k","om"],["▁ko","m"],["z","i"],["▁","γ"],["a","tion"],["at","ion"],["ati","on"],["o","nd"],["on","d"],["m","er"],["me","r"],["y","t"],["▁","för"],["▁f","ör"],["▁fö","r"],["▁s","am"],["▁sa","m"],["▁","ap"],["▁a","p"],["▁","ol"],["▁o","l"],["t","s"],["b","e"],["н","і"],["▁","va"],["▁v","a"],["a","to"],["at","o"],["▁","che"],["▁c","he"],["▁ch","e"],["ч","е"],["ч","и"],["z","a"],["▁","pu"],["▁p","u"],["х","о"],["▁s","ă"],["e","te"],["et","e"],["▁e","en"],["▁","għ"],["▁g","ħ"],["ä","t"],["v","en"],["ve","n"],["f","or"],["fo","r"],["i","le"],["il","e"],["▁","az"],["▁a","z"],["τ","η"],["b","i"],["j","o"],["▁","че"],["▁ч","е"],["n","é"],["t","or"],["to","r"],["v","i"],["c","a"],["▁","ri"],["▁r","i"],["ț","i"],["▁","af"],["▁a","f"],["o","ns"],["on","s"],["i","sta"],["is","ta"],["ist","a"],["ä","l"],["м","у"],["n","ie"],["ni","e"],["▁","э"],["д","о"],["ι","κ"],["▁","por"],["▁p","or"],["▁po","r"],["▁","і"],["m","o"],["u","g"],["▁","Н"],["▁","he"],["▁h","e"],["o","gy"],["og","y"],["▁p","ara"],["▁pa","ra"],["▁par","a"],["u","nd"],["un","d"],["▁","das"],["▁d","as"],["▁da","s"],["▁","lo"],["▁l","o"],["▁","εί"],["▁ε","ί"],["▁","men"],["▁m","en"],["▁me","n"],["é","s"],["▁","що"],["p","l"],["μ","ε"],["m","en"],["me","n"],["▁","ter"],["▁t","er"],["▁te","r"],["н","я"],["▁","В"],["▁","του"],["▁τ","ου"],["▁το","υ"],["b","en"],["be","n"],["н","ы"],["▁","à"],["▁","har"],["▁h","ar"],["▁ha","r"],["с","е"],["▁","ha"],["▁h","a"],["b","u"],["▁","pol"],["▁p","ol"],["▁po","l"],["▁D","e"],["▁","or"],["▁o","r"],["▁","ο"],["r","av"],["ra","v"],["▁e","in"],["▁ei","n"],["▁","при"],["▁п","ри"],["d","i"],["s","o"],["з","а"],["p","er"],["pe","r"],["a","rt"],["ar","t"],["▁","pa"],["▁p","a"],["▁","les"],["▁l","es"],["▁le","s"],["▁","vid"],["▁v","id"],["▁vi","d"],["▁","cu"],["▁c","u"],["▁k","ad"],["▁ka","d"],["▁","vis"],["▁v","is"],["▁vi","s"],["o","ll"],["ol","l"],["▁","ki"],["▁k","i"],["▁","är"],["▁ä","r"],["r","at"],["ra","t"],["ч","а"],["▁","dat"],["▁d","at"],["▁da","t"],["e","tt"],["et","t"],["▁ч","то"],["h","r"],["c","he"],["ch","e"],["▁h","ogy"],["▁ho","gy"],["б","о"],["▁","co"],["▁c","o"],["d","y"],["▁","it"],["▁i","t"],["an","do"],["and","o"],["▁E","n"],["▁","ce"],["▁c","e"],["▁","ge"],["▁g","e"],["un","g"],["▁","kan"],["▁k","an"],["▁ka","n"],["с","то"],["ст","о"],["j","en"],["je","n"],["▁","ser"],["▁s","er"],["▁se","r"],["щ","е"],["▁J","a"],["i","h"],["▁","го"],["▁г","о"],["с","и"],["ц","и"],["a","ra"],["ar","a"],["▁s","v"],["ρ","ι"],["▁","με"],["▁μ","ε"],["▁","ż"],["i","es"],["ie","s"],["▁S","e"],["▁I","n"],["b","l"],["a","do"],["ad","o"],["▁","jo"],["▁j","o"],["u","lt"],["ul","t"],["j","on"],["jo","n"],["r","es"],["re","s"],["ž","e"],["▁","met"],["▁m","et"],["▁me","t"],["d","er"],["de","r"],["g","u"],["▁","til"],["▁t","il"],["▁ti","l"],["▁","П"],["▁m","eg"],["▁me","g"],["▁","ü"],["é","r"],["▁","бу"],["▁б","у"],["▁","una"],["▁u","na"],["▁un","a"],["r","am"],["ra","m"],["σ","η"],["▁","ho"],["▁h","o"],["y","m"],["к","у"],["i","ch"],["ic","h"],["o","re"],["or","e"],["ε","ί"],["▁и","з"],["і","д"],["á","n"],["▁","tai"],["▁t","ai"],["▁ta","i"],["▁","С"],["c","o"],["▁","was"],["▁w","as"],["▁wa","s"],["i","la"],["il","a"],["e","ment"],["em","ent"],["ν","ο"],["▁","kon"],["▁k","on"],["▁ko","n"],["▁","ist"],["▁i","st"],["▁is","t"],["í","m"],["p","a"],["e","la"],["el","a"],["▁","nem"],["▁n","em"],["▁ne","m"],["▁","val"],["▁v","al"],["▁va","l"],["a","ta"],["at","a"],["▁","tem"],["▁t","em"],["▁te","m"],["an","g"],["▁","tie"],["▁t","ie"],["▁ti","e"],["▁","pot"],["▁p","ot"],["▁po","t"],["e","sti"],["es","ti"],["est","i"],["ó","n"],["in","t"],["с","ти"],["ст","и"],["▁","Д"],["с","та"],["ст","а"],["en","to"],["ent","o"],["el","le"],["ell","e"],["c","z"],["▁","dar"],["▁d","ar"],["▁da","r"],["▁","г"],["ш","и"],["▁","пре"],["▁п","ре"],["b","o"],["e","de"],["ed","e"],["r","ed"],["re","d"],["▁","lu"],["▁l","u"],["π","ό"],["t","r"],["q","ue"],["qu","e"],["l","er"],["le","r"],["a","rd"],["ar","d"],["▁M","a"],["e","go"],["eg","o"],["▁A","l"],["з","и"],["н","у"],["i","ni"],["in","i"],["t","av"],["ta","v"],["▁e","i"],["▁","egy"],["▁e","gy"],["▁eg","y"],["▁","vol"],["▁v","ol"],["▁vo","l"],["a","mo"],["am","o"],["i","b"],["s","te"],["st","e"],["▁","об"],["▁о","б"],["е","р"],["i","ta"],["it","a"],["a","na"],["an","a"],["á","r"],["ж","и"],["k","l"],["▁","во"],["▁в","о"],["▁","те"],["▁т","е"],["i","jn"],["ij","n"],["л","ю"],["с","ь"],["é","g"],["h","t"],["i","sk"],["is","k"],["▁","Y"],["n","en"],["ne","n"],["e","ga"],["eg","a"],["▁","tra"],["▁t","ra"],["▁tr","a"],["á","m"],["n","os"],["no","s"],["c","u"],["a","ko"],["ak","o"],["a","ve"],["av","e"],["▁","oli"],["▁o","li"],["▁ol","i"],["▁","К"],["▁","kas"],["▁k","as"],["▁ka","s"],["g","o"],["▁","sem"],["▁s","em"],["▁se","m"],["▁T","o"],["a","ma"],["am","a"],["r","it"],["ri","t"],["ν","αι"],["να","ι"],["n","ing"],["▁","κα"],["▁κ","α"],["▁","М"],["▁","că"],["▁c","ă"],["ó","w"],["j","em"],["je","m"],["ъ","р"],["í","t"],["k","k"],["▁","jed"],["▁j","ed"],["▁je","d"],["i","se"],["is","e"],["▁","си"],["▁с","и"],["▁","bi"],["▁b","i"],["▁","res"],["▁r","es"],["▁re","s"],["ý","ch"],["▁","kun"],["▁k","un"],["▁ku","n"],["▁","ма"],["▁м","а"],["▁","ale"],["▁a","le"],["▁al","e"],["e","ra"],["er","a"],["▁","mit"],["▁m","it"],["▁mi","t"],["l","as"],["la","s"],["å","r"],["▁N","e"],["▁J","e"],["▁si","ę"],["▁","ми"],["▁м","и"],["l","y"],["▁","θ"],["▁","zu"],["▁z","u"],["▁","ú"],["▁","fil"],["▁f","il"],["▁fi","l"],["o","ra"],["or","a"],["ни","я"],["a","tt"],["at","t"],["▁","bu"],["▁b","u"],["o","lo"],["ol","o"],["▁","dem"],["▁d","em"],["▁de","m"],["i","ka"],["ik","a"],["a","mi"],["am","i"],["i","to"],["it","o"],["e","li"],["el","i"],["a","no"],["an","o"],["▁t","hat"],["▁th","at"],["z","t"],["▁","О"],["á","v"],["і","в"],["l","ig"],["li","g"],["▁γ","ια"],["▁p","ř"],["ни","е"],["д","у"],["e","lt"],["el","t"],["б","и"],["▁","fin"],["▁f","in"],["▁fi","n"],["▁vi","ņ"],["ί","α"],["m","u"],["e","da"],["ed","a"],["▁s","ig"],["▁si","g"],["▁","ħ"],["υ","τ"],["ω","ν"],["u","ro"],["ur","o"],["ū","s"],["e","ren"],["er","en"],["ere","n"],["▁","де"],["▁д","е"],["c","t"],["▁","ich"],["▁i","ch"],["λ","λ"],["l","en"],["le","n"],["α","ν"],["a","ri"],["ar","i"],["▁i","š"],["s","p"],["c","es"],["ce","s"],["▁","vy"],["▁v","y"],["i","da"],["id","a"],["л","у"],["▁","hu"],["▁h","u"],["▁","į"],["ā","s"],["▁","uz"],["▁u","z"],["▁","inter"],["▁in","ter"],["▁int","er"],["▁inte","r"],["▁","ро"],["a","għ"],["ag","ħ"],["k","y"],["ε","ν"],["o","no"],["on","o"],["c","ia"],["ci","a"],["r","y"],["o","ri"],["or","i"],["▁I","l"],["▁","ent"],["▁en","t"],["▁","pra"],["▁p","ra"],["▁pr","a"],["▁","my"],["▁m","y"],["il","le"],["ill","e"],["▁E","s"],["f","t"],["▁d","is"],["▁di","s"],["▁p","ers"],["▁pe","rs"],["▁per","s"],["▁εί","ναι"],["▁","ad"],["▁a","d"],["▁","all"],["▁a","ll"],["▁al","l"],["a","ni"],["an","i"],["un","t"],["▁U","n"],["τ","ικ"],["τι","κ"],["o","ne"],["on","e"],["▁","tre"],["▁t","re"],["▁tr","e"],["▁","fr"],["▁f","r"],["a","nte"],["an","te"],["ant","e"],["▁","И"],["ж","а"],["s","en"],["se","n"],["▁ό","τι"],["o","j"],["▁э","то"],["в","і"],["▁","ke"],["▁k","e"],["ā","r"],["a","ne"],["an","e"],["п","а"],["d","o"],["a","me"],["am","e"],["ä","m"],["i","ci"],["ic","i"],["m","ent"],["men","t"],["▁c","ont"],["▁con","t"],["с","о"],["▁","που"],["▁π","ου"],["▁πο","υ"],["b","an"],["ba","n"],["i","ca"],["ic","a"],["▁","mis"],["▁m","is"],["▁mi","s"],["е","т"],["a","lt"],["al","t"],["ü","l"],["é","n"],["▁","è"],["v","at"],["va","t"],["▁","ty"],["▁t","y"],["▁","gr"],["▁g","r"],["▁","din"],["▁d","in"],["▁di","n"],["ö","n"],["▁","са"],["▁с","а"],["▁α","πό"],["▁απ","ό"],["▁","los"],["▁l","os"],["▁lo","s"],["▁","mod"],["▁m","od"],["▁mo","d"],["e","ne"],["en","e"],["▁","бы"],["▁б","ы"],["i","tu"],["it","u"],["▁","но"],["▁н","о"],["l","ed"],["le","d"],["▁D","et"],["▁De","t"],["ο","ύ"],["u","se"],["us","e"],["▁","bet"],["▁b","et"],["▁be","t"],["▁","este"],["▁e","ste"],["▁es","te"],["▁est","e"],["р","я"],["▁","зна"],["▁з","на"],["▁τη","ν"],["▁S","t"],["▁","ut"],["▁u","t"],["en","n"],["▁","pi"],["▁p","i"],["▁","ze"],["▁z","e"],["u","k"],["e","ste"],["es","te"],["est","e"],["z","n"],["▁","mar"],["▁m","ar"],["▁ma","r"],["н","ого"],["но","го"],["▁","ре"],["▁y","ou"],["▁yo","u"],["▁t","ill"],["▁ti","ll"],["▁til","l"],["▁","Q"],["i","one"],["io","ne"],["ion","e"],["č","i"],["▁","han"],["▁h","an"],["▁ha","n"],["i","nu"],["in","u"],["▁t","as"],["▁ta","s"],["p","u"],["in","k"],["i","tt"],["it","t"],["▁","ak"],["▁a","k"],["▁","dan"],["▁d","an"],["▁da","n"],["▁","раз"],["▁ра","з"],["▁p","our"],["▁po","ur"],["▁pou","r"],["▁","це"],["▁ц","е"],["▁h","ab"],["▁ha","b"],["▁t","od"],["▁to","d"],["ä","h"],["c","hen"],["ch","en"],["che","n"],["b","li"],["bl","i"],["τ","ά"],["t","iv"],["ti","v"],["▁w","ir"],["▁wi","r"],["▁im","p"],["i","ce"],["ic","e"],["z","z"],["п","и"],["e","ri"],["er","i"],["▁","sch"],["▁s","ch"],["▁sc","h"],["▁","ti"],["▁t","i"],["▁","ju"],["▁j","u"],["▁","ot"],["▁o","t"],["▁","tik"],["▁t","ik"],["▁ti","k"],["i","si"],["is","i"],["▁","со"],["▁с","о"],["i","ek"],["ie","k"],["ent","ru"],["▁j","ag"],["▁ja","g"],["y","n"],["▁","dob"],["▁d","ob"],["▁do","b"],["en","ti"],["ent","i"],["р","і"],["▁","så"],["▁s","å"],["i","ma"],["im","a"],["▁","χ"],["e","rt"],["er","t"],["▁","raz"],["▁r","az"],["▁ra","z"],["i","ed"],["ie","d"],["w","o"],["i","me"],["im","e"],["i","no"],["in","o"],["▁","pat"],["▁p","at"],["▁pa","t"],["▁","że"],["▁ż","e"],["ρ","ά"],["т","у"],["o","se"],["os","e"],["▁","kur"],["▁k","ur"],["▁ku","r"],["▁","pal"],["▁p","al"],["▁pa","l"],["h","er"],["he","r"],["t","ion"],["ti","on"],["▁v","õ"],["▁","bil"],["▁b","il"],["▁bi","l"],["▁","ва"],["▁в","а"],["ου","ν"],["▁N","o"],["▁","nek"],["▁n","ek"],["▁ne","k"],["š","e"],["w","e"],["▁","inte"],["▁i","nte"],["▁in","te"],["▁int","e"],["▁","ved"],["▁v","ed"],["▁ve","d"],["▁s","av"],["▁sa","v"],["g","er"],["ge","r"],["▁","Я"],["▁s","ee"],["▁se","e"],["k","en"],["ke","n"],["š","i"],["▁C","h"],["e","ma"],["em","a"],["▁","А"],["ά","ν"],["▁","jeg"],["▁j","eg"],["▁je","g"],["p","i"],["▁","fa"],["▁f","a"],["▁m","ai"],["▁ma","i"],["e","ni"],["en","i"],["▁","ga"],["▁g","a"],["i","de"],["id","e"],["с","ть"],["ст","ь"],["▁","ste"],["▁s","te"],["▁st","e"],["п","е"],["▁σ","υ"],["l","es"],["le","s"],["u","x"],["▁","sta"],["▁s","ta"],["▁st","a"],["і","н"],["▁","nad"],["▁n","ad"],["▁na","d"],["ė","s"],["▁я","к"],["v","al"],["va","l"],["é","m"],["e","mm"],["em","m"],["▁u","h"],["▁","br"],["▁b","r"],["▁","js"],["▁j","s"],["▁z","ijn"],["▁zi","jn"],["i","nen"],["in","en"],["ine","n"],["▁","las"],["▁l","as"],["▁la","s"],["v","ar"],["va","r"],["▁c","are"],["▁ca","re"],["▁car","e"],["n","u"],["u","si"],["us","i"],["a","mente"],["am","ente"],["ame","nte"],["amen","te"],["ament","e"],["p","re"],["pr","e"],["▁ε","π"],["▁","вы"],["▁в","ы"],["ä","ä"],["un","k"],["i","ke"],["ik","e"],["h","et"],["he","t"],["▁","ten"],["▁t","en"],["▁te","n"],["▁s","ie"],["▁si","e"],["ть","ся"],["í","a"],["ü","r"],["▁A","n"],["▁","dom"],["▁d","om"],["▁do","m"],["t","ig"],["ti","g"],["s","er"],["se","r"],["▁L","a"],["t","re"],["tr","e"],["a","mos"],["am","os"],["amo","s"],["▁","τα"],["▁τ","α"],["▁t","ro"],["▁tr","o"],["▁n","on"],["▁no","n"],["▁","q"],["▁","fi"],["▁f","i"],["m","an"],["ma","n"],["г","и"],["▁p","entru"],["ι","σ"],["▁","bo"],["▁b","o"],["▁","съ"],["▁с","ъ"],["ρ","ε"],["▁","η"],["u","p"],["▁","kol"],["▁k","ol"],["▁ko","l"],["ž","i"],["ā","m"],["▁a","by"],["▁ab","y"],["▁","gen"],["▁g","en"],["▁ge","n"],["▁","tam"],["▁t","am"],["▁ta","m"],["o","va"],["ov","a"],["▁L","e"],["e","se"],["es","e"],["▁","Α"],["▁w","h"],["o","ve"],["ov","e"],["ο","λ"],["▁S","ie"],["▁Si","e"],["▁","β"],["л","і"],["▁","ф"],["i","mo"],["im","o"],["v","is"],["vi","s"],["▁","une"],["▁u","ne"],["▁un","e"],["ρ","ό"],["▁","wa"],["▁w","a"],["n","ě"],["o","tt"],["ot","t"],["▁","jak"],["▁j","ak"],["▁ja","k"],["▁","бе"],["▁б","е"],["▁","fu"],["▁f","u"],["e","ta"],["et","a"],["v","an"],["va","n"],["é","t"],["u","ma"],["um","a"],["▁n","ä"],["u","j"],["▁V","i"],["e","sta"],["es","ta"],["est","a"],["▁","fo"],["▁f","o"],["▁i","kke"],["▁ik","ke"],["▁","kien"],["▁k","ien"],["▁ki","en"],["▁kie","n"],["m","ente"],["me","nte"],["men","te"],["ment","e"],["▁мо","же"],["▁","ни"],["▁н","и"],["u","ms"],["um","s"],["▁et","tä"],["▁ett","ä"],["▁h","än"],["▁hä","n"],["i","je"],["ij","e"],["▁","nos"],["▁n","os"],["▁no","s"],["i","ge"],["ig","e"],["ā","k"],["▁к","ак"],["▁ка","к"],["▁","vien"],["▁v","ien"],["▁vi","en"],["▁vie","n"],["s","ta"],["st","a"],["▁m","il"],["▁mi","l"],["e","ro"],["er","o"],["ц","і"],["▁","reg"],["▁r","eg"],["▁re","g"],["l","j"],["▁Q","u"],["о","го"],["o","li"],["ol","i"],["▁","jest"],["▁j","est"],["▁je","st"],["c","ie"],["ci","e"],["e","sto"],["es","to"],["est","o"],["▁","over"],["▁o","ver"],["▁ov","er"],["a","f"],["▁","хо"],["▁х","о"],["▁","φ"],["▁α","υτ"],["▁αυ","τ"],["▁σ","το"],["j","oni"],["jo","ni"],["jon","i"],["▁","dru"],["▁d","ru"],["▁dr","u"],["τ","αι"],["τα","ι"],["▁","aut"],["▁a","ut"],["▁au","t"],["σ","ε"],["▁vo","or"],["▁","mal"],["▁m","al"],["▁ma","l"],["p","t"],["r","as"],["ra","s"],["å","n"],["e","me"],["em","e"],["ł","a"],["c","ion"],["ci","on"],["cio","n"],["▁N","a"],["▁","vous"],["▁vo","us"],["▁vou","s"],["▁","wer"],["▁w","er"],["▁we","r"],["u","rs"],["ur","s"],["ø","r"],["р","ы"],["i","ck"],["ic","k"],["c","ê"],["▁","nas"],["▁n","as"],["▁na","s"],["▁","ö"],["ç","ão"],["▁","kr"],["▁k","r"],["e","na"],["en","a"],["х","а"],["▁","uma"],["▁u","ma"],["▁um","a"],["▁v","ai"],["▁va","i"],["h","om"],["ho","m"],["▁","ind"],["▁i","nd"],["▁in","d"],["▁в","се"],["▁","zn"],["▁z","n"],["▁c","omo"],["▁co","mo"],["▁com","o"],["i","ns"],["in","s"],["en","de"],["end","e"],["▁m","or"],["▁mo","r"],["е","ре"],["ер","е"],["▁то","ва"],["▁","als"],["▁al","s"],["τ","αν"],["τα","ν"],["e","ly"],["el","y"],["▁s","vo"],["▁sv","o"],["▁","ud"],["▁u","d"],["t","ó"],["▁","vel"],["▁v","el"],["▁ve","l"],["п","ра"],["▁","us"],["▁u","s"],["z","en"],["ze","n"],["h","n"],["ci","ón"],["▁","Б"],["▁","vil"],["▁v","il"],["▁vi","l"],["p","s"],["▁n","aj"],["▁na","j"],["u","ne"],["un","e"],["▁y","ra"],["▁","x"],["▁","roz"],["▁r","oz"],["▁ro","z"],["м","ен"],["ме","н"],["▁","ktor"],["▁k","tor"],["▁","go"],["▁g","o"],["w","i"],["a","ks"],["ak","s"],["el","la"],["ell","a"],["▁pro","bl"],["▁prob","l"],["i","ty"],["it","y"],["▁θ","α"],["▁","bar"],["▁b","ar"],["▁ba","r"],["с","а"],["σ","ει"],["σε","ι"],["▁m","ais"],["▁ma","is"],["▁mai","s"],["▁","αν"],["▁α","ν"],["▁Т","о"],["▁","sl"],["▁s","l"],["▁com","p"],["▁n","ão"],["w","n"],["i","ve"],["iv","e"],["▁v","on"],["▁vo","n"],["▁","qui"],["▁q","ui"],["▁qu","i"],["v","el"],["ve","l"],["l","ich"],["li","ch"],["lic","h"],["n","osti"],["no","sti"],["nos","ti"],["nost","i"],["m","in"],["mi","n"],["▁","war"],["▁w","ar"],["▁wa","r"],["u","je"],["uj","e"],["▁n","iet"],["▁ni","et"],["▁nie","t"],["▁","ή"],["ι","ο"],["i","au"],["ia","u"],["ä","än"],["ää","n"],["ý","m"],["μ","έ"],["a","ment"],["am","ent"],["amen","t"],["o","le"],["ol","e"],["▁","sin"],["▁s","in"],["▁si","n"],["▁n","ot"],["▁no","t"],["▁A","r"],["▁p","om"],["▁po","m"],["▁","vor"],["▁v","or"],["▁vo","r"],["ā","t"],["p","or"],["po","r"],["▁b","ud"],["▁bu","d"],["▁","wy"],["▁w","y"],["б","а"],["i","sti"],["is","ti"],["ist","i"],["▁","aj"],["▁a","j"],["▁T","he"],["▁Th","e"],["▁t","ur"],["▁tu","r"],["▁s","ur"],["▁su","r"],["я","т"],["j","et"],["je","t"],["g","an"],["ga","n"],["▁","Ε"],["▁","kor"],["▁k","or"],["▁ko","r"],["i","ex"],["ie","x"],["▁n","icht"],["▁ni","cht"],["▁nich","t"],["▁","dal"],["▁d","al"],["▁da","l"],["ρ","ί"],["e","ld"],["el","d"],["і","ль"],["l","et"],["le","t"],["▁","kar"],["▁k","ar"],["▁ka","r"],["▁d","r"],["u","ri"],["ur","i"],["b","y"],["i","den"],["id","en"],["ide","n"],["er","n"],["▁","ako"],["▁a","ko"],["▁ak","o"],["▁","σε"],["▁σ","ε"],["c","ă"],["b","il"],["bi","l"],["▁d","ans"],["▁da","ns"],["▁dan","s"],["ut","ta"],["utt","a"],["a","sta"],["as","ta"],["ast","a"],["▁s","m"],["r","et"],["re","t"],["▁","λ"],["i","do"],["id","o"],["a","ge"],["ag","e"],["▁","her"],["▁h","er"],["▁he","r"],["▁π","ρο"],["▁","mas"],["▁m","as"],["▁ma","s"],["in","n"],["▁","бо"],["▁б","о"],["▁d","ass"],["▁da","ss"],["▁das","s"],["▁","пра"],["▁п","ра"],["k","om"],["ko","m"],["▁","З"],["▁","mat"],["▁m","at"],["▁ma","t"],["▁k","ā"],["▁E","l"],["▁","від"],["▁в","ід"],["▁ві","д"],["š","í"],["▁","wie"],["▁w","ie"],["▁wi","e"],["p","ro"],["pr","o"],["▁","tar"],["▁t","ar"],["▁ta","r"],["▁t","ud"],["▁tu","d"],["▁","ca"],["▁c","a"],["k","on"],["ko","n"],["▁","πε"],["▁π","ε"],["▁","па"],["▁п","а"],["l","im"],["li","m"],["▁","bes"],["▁b","es"],["▁be","s"],["▁k","ai"],["▁ka","i"],["r","os"],["ro","s"],["▁д","ля"],["▁p","red"],["▁pr","ed"],["▁pre","d"],["в","у"],["ν","ε"],["▁","era"],["▁e","ra"],["▁er","a"],["▁","ave"],["▁a","ve"],["▁av","e"],["▁b","ū"],["n","ik"],["ni","k"],["i","th"],["it","h"],["▁k","tó"],["o","rs"],["or","s"],["щ","и"],["▁","ста"],["▁с","та"],["▁ст","а"],["▁t","om"],["▁to","m"],["▁","mus"],["▁m","us"],["▁mu","s"],["▁","gal"],["▁g","al"],["▁ga","l"],["c","er"],["ce","r"],["t","t"],["▁","Š"],["▁","leg"],["▁l","eg"],["▁le","g"],["r","ij"],["ri","j"],["▁","Τ"],["▁E","uro"],["▁Eu","ro"],["▁T","ai"],["▁Ta","i"],["for","m"],["▁","ст"],["▁с","т"],["▁","ме"],["▁м","е"],["▁d","iv"],["▁di","v"],["ο","ν"],["▁","ду"],["▁д","у"],["с","ка"],["ск","а"],["▁","fl"],["▁f","l"],["▁a","uf"],["▁au","f"],["▁c","ons"],["▁co","ns"],["▁con","s"],["▁","ci"],["▁c","i"],["▁т","ак"],["▁та","к"],["k","et"],["ke","t"],["▁","kö"],["▁k","ö"],["▁","ali"],["▁a","li"],["▁al","i"],["▁d","os"],["▁do","s"],["ου","με"],["v","ad"],["va","d"],["▁","str"],["▁s","tr"],["▁st","r"],["i","tä"],["it","ä"],["a","se"],["as","e"],["▁","nog"],["▁n","og"],["▁no","g"],["an","n"],["л","ен"],["ле","н"],["f","ic"],["fi","c"],["▁","υ"],["f","er"],["fe","r"],["▁","Κ"],["▁с","во"],["e","lo"],["el","o"],["e","c"],["p","os"],["po","s"],["▁","sen"],["▁s","en"],["▁se","n"],["▁no","us"],["▁nou","s"],["▁C","om"],["▁Co","m"],["▁","ли"],["з","о"],["▁","sim"],["▁s","im"],["▁si","m"],["▁m","ás"],["▁má","s"],["▁δ","εν"],["▁δε","ν"],["▁P","o"],["ī","b"],["▁","gl"],["▁g","l"],["▁pr","og"],["▁pro","g"],["e","kk"],["ek","k"],["u","re"],["ur","e"],["▁","πα"],["▁π","α"],["с","ки"],["ск","и"],["▁s","c"],["▁","tri"],["▁t","ri"],["▁tr","i"],["▁","sob"],["▁s","ob"],["▁so","b"],["▁k","ui"],["▁ku","i"],["▁","ag"],["▁a","g"],["k","un"],["ku","n"],["▁","bl"],["▁b","l"],["▁","ще"],["ώ","ν"],["▁","hm"],["▁h","m"],["ρ","έ"],["c","y"],["t","im"],["ti","m"],["▁","ji"],["▁j","i"],["▁h","ave"],["▁ha","ve"],["▁hav","e"],["a","lo"],["al","o"],["▁","ole"],["▁o","le"],["▁ol","e"],["ó","l"],["v","et"],["ve","t"],["r","t"],["▁T","ak"],["▁Ta","k"],["▁p","erson"],["▁per","son"],["▁pers","on"],["▁","ча"],["▁ч","а"],["▁t","agħ"],["▁ta","għ"],["▁tag","ħ"],["a","si"],["as","i"],["▁","στη"],["▁σ","τη"],["š","an"],["ša","n"],["z","d"],["▁","fel"],["▁f","el"],["▁fe","l"],["▁","inc"],["▁in","c"],["E","E"],["λ","ο"],["▁έ","να"],["▁","ве"],["▁в","е"],["▁vo","cê"],["▁m","ig"],["▁mi","g"],["▁","už"],["▁u","ž"],["щ","а"],["▁M","ar"],["▁Ma","r"],["á","g"],["▁h","eb"],["▁he","b"],["ē","s"],["▁","vä"],["▁v","ä"],["▁D","a"],["▁","bol"],["▁b","ol"],["▁bo","l"],["▁","ih"],["▁i","h"],["ś","ci"],["v","or"],["vo","r"],["š","t"],["λ","α"],["▁s","us"],["▁su","s"],["k","er"],["ke","r"],["▁","cs"],["▁c","s"],["▁k","ter"],["u","ld"],["ul","d"],["e","ks"],["ek","s"],["▁","nes"],["▁n","es"],["▁ne","s"],["с","но"],["b","b"],["a","va"],["av","a"],["▁","alle"],["▁al","le"],["▁all","e"],["▁P","ar"],["▁Pa","r"],["w","ar"],["wa","r"],["ē","j"],["i","ko"],["ik","o"],["r","ad"],["ra","d"],["n","ost"],["no","st"],["nos","t"],["▁","pla"],["▁p","la"],["▁pl","a"],["y","l"],["p","ar"],["pa","r"],["o","van"],["ov","an"],["ova","n"],["â","n"],["▁d","é"],["▁","vers"],["▁v","ers"],["▁ve","rs"],["▁ver","s"],["n","ak"],["na","k"],["▁v","ide"],["▁vi","de"],["▁vid","e"],["▁e","u"],["et","te"],["ett","e"],["▁","cer"],["▁c","er"],["▁ce","r"],["l","ik"],["li","k"],["м","і"],["▁","are"],["▁a","re"],["▁ar","e"],["o","ni"],["on","i"],["á","k"],["▁","ou"],["▁o","u"],["▁p","ov"],["▁po","v"],["h","ed"],["he","d"],["▁","ah"],["▁a","h"],["g","el"],["ge","l"],["h","en"],["he","n"],["ł","o"],["а","к"],["h","u"],["ни","й"],["ü","n"],["s","s"],["▁d","on"],["▁do","n"],["ц","е"],["▁","hat"],["▁h","at"],["▁ha","t"],["κ","ε"],["▁","х"],["▁","nov"],["▁n","ov"],["▁no","v"],["h","at"],["ha","t"],["i","mi"],["im","i"],["▁m","ind"],["▁mi","nd"],["▁min","d"],["▁tie","għ"],["▁bu","vo"],["▁in","v"],["o","c"],["n","er"],["ne","r"],["▁","car"],["▁c","ar"],["▁ca","r"],["λ","ε"],["é","l"],["▁pr","odu"],["▁pro","du"],["▁prod","u"],["k","ol"],["ko","l"],["ad","os"],["ado","s"],["▁","tä"],["▁t","ä"],["f","ter"],["ft","er"],["fte","r"],["▁g","ro"],["▁gr","o"],["▁B","e"],["n","ej"],["ne","j"],["y","st"],["ys","t"],["al","mente"],["alment","e"],["▁","Σ"],["▁p","lus"],["▁pl","us"],["▁P","ro"],["▁Pr","o"],["ж","но"],["á","z"],["e","kt"],["ek","t"],["б","е"],["▁","mer"],["▁m","er"],["▁me","r"],["n","es"],["ne","s"],["▁","pie"],["▁p","ie"],["▁pi","e"],["▁","τι"],["▁τ","ι"],["a","sti"],["as","ti"],["ast","i"],["ни","те"],["▁T","e"],["a","gy"],["ag","y"],["▁","ć"],["▁m","og"],["▁mo","g"],["▁","ба"],["▁б","а"],["ul","le"],["ull","e"],["i","ts"],["it","s"],["a","tiv"],["at","iv"],["ati","v"],["o","ti"],["ot","i"],["m","y"],["▁τ","ον"],["▁το","ν"],["a","ts"],["at","s"],["ль","но"],["▁П","о"],["o","na"],["on","a"],["▁","pres"],["▁p","res"],["▁pr","es"],["▁pre","s"],["k","el"],["ke","l"],["▁","кото"],["▁ко","то"],["▁A","le"],["▁Al","e"],["▁a","an"],["▁п","ере"],["▁пе","ре"],["▁пер","е"],["r","em"],["re","m"],["▁","wi"],["▁w","i"],["ing","ap"],["inga","p"],["с","у"],["ā","j"],["it","à"],["▁","id"],["▁i","d"],["y","v"],["▁","Е"],["in","gen"],["ing","en"],["inge","n"],["▁","мен"],["▁м","ен"],["▁ме","н"],["ле","д"],["a","ter"],["at","er"],["ate","r"],["u","e"],["▁t","ran"],["▁tr","an"],["▁tra","n"],["▁M","e"],["σ","ι"],["▁","oma"],["▁o","ma"],["▁om","a"],["i","lo"],["il","o"],["▁","Π"],["▁s","ol"],["▁so","l"],["▁","dig"],["▁d","ig"],["▁di","g"],["ст","во"],["▁J","o"],["о","р"],["a","h"],["▁","eller"],["▁el","ler"],["▁elle","r"],["▁S","ch"],["▁Sc","h"],["ш","а"],["o","č"],["▁","μα"],["▁μ","α"],["▁по","д"],["o","z"],["λ","η"],["▁p","rin"],["▁pr","in"],["▁pri","n"],["▁","kl"],["▁k","l"],["τ","ή"],["▁","лю"],["с","ко"],["ск","о"],["▁b","iex"],["▁bi","ex"],["▁e","ine"],["▁ei","ne"],["▁ein","e"],["▁","ré"],["▁r","é"],["ч","но"],["▁","dz"],["▁d","z"],["e","mos"],["em","os"],["emo","s"],["a","kt"],["ak","t"],["æ","r"],["▁d","ire"],["▁di","re"],["▁dir","e"],["a","ss"],["as","s"],["▁g","ħal"],["▁għ","al"],["▁għa","l"],["▁","up"],["▁u","p"],["em","b"],["▁W","e"],["▁d","ol"],["▁do","l"],["j","er"],["je","r"],["▁έ","χ"],["μ","ο"],["u","ra"],["ur","a"],["▁b","ija"],["▁bi","ja"],["▁bij","a"],["▁","mon"],["▁m","on"],["▁mo","n"],["▁l","ai"],["▁la","i"],["▁Н","а"],["es","so"],["ess","o"],["▁E","r"],["c","ij"],["ci","j"],["i","ste"],["is","te"],["ist","e"],["▁","én"],["▁é","n"],["▁n","ap"],["▁na","p"],["š","k"],["г","у"],["y","sl"],["ys","l"],["с","те"],["ст","е"],["é","ho"],["ě","l"],["▁k","ap"],["▁ka","p"],["an","ti"],["ant","i"],["▁c","or"],["▁co","r"],["k","r"],["▁w","ith"],["▁wi","th"],["▁","Μ"],["on","g"],["▁c","re"],["▁cr","e"],["з","у"],["an","de"],["and","e"],["í","v"],["▁r","ec"],["▁re","c"],["▁H","e"],["ρ","γ"],["▁s","tar"],["▁st","ar"],["▁sta","r"],["ν","η"],["▁","zd"],["▁z","d"],["▁t","ā"],["c","zy"],["cz","y"],["h","od"],["ho","d"],["▁","ny"],["▁n","y"],["c","s"],["▁","cz"],["▁c","z"],["a","ld"],["al","d"],["▁","У"],["▁","što"],["▁š","to"],["▁št","o"],["n","ý"],["ē","r"],["p","li"],["pl","i"],["▁p","oz"],["▁po","z"],["▁p","op"],["▁po","p"],["▁","int"],["▁in","t"],["a","ch"],["ac","h"],["i","jiet"],["ij","iet"],["iji","et"],["an","to"],["ant","o"],["▁I","ch"],["▁s","ich"],["▁si","ch"],["o","me"],["om","e"],["en","ta"],["ent","a"],["▁c","ome"],["▁co","me"],["▁com","e"],["▁","kä"],["▁k","ä"],["▁s","ab"],["▁sa","b"],["▁","bli"],["▁b","li"],["▁bl","i"],["▁","app"],["▁a","pp"],["▁ap","p"],["á","d"],["▁","pon"],["▁p","on"],["▁po","n"],["е","м"],["e","len"],["el","en"],["ele","n"],["v","ol"],["vo","l"],["▁p","rzy"],["▁pr","zy"],["▁prz","y"],["▁na","š"],["a","is"],["ai","s"],["â","nd"],["ân","d"],["▁c","am"],["▁ca","m"],["н","ня"],["▁l","ah"],["▁la","h"],["▁I","k"],["å","g"],["▁O","h"],["▁h","ad"],["▁ha","d"],["▁m","ag"],["▁ma","g"],["r","ie"],["ri","e"],["▁","κά"],["▁κ","ά"],["λ","λά"],["λλ","ά"],["▁n","av"],["▁na","v"],["ł","y"],["ρ","ω"],["ρ","η"],["▁m","ill"],["▁mi","ll"],["▁mil","l"],["p","ri"],["pr","i"],["▁k","ont"],["▁kon","t"],["ř","í"],["▁n","or"],["▁no","r"],["▁M","en"],["▁Me","n"],["▁","esta"],["▁e","sta"],["▁es","ta"],["▁est","a"],["▁","zo"],["▁z","o"],["▁m","aj"],["▁ma","j"],["в","ер"],["ве","р"],["▁","ru"],["▁r","u"],["d","es"],["de","s"],["▁z","ap"],["▁za","p"],["▁s","ag"],["▁sa","g"],["▁p","ou"],["▁po","u"],["▁д","ру"],["▁T","a"],["▁","би"],["▁б","и"],["▁","Ο"],["f","i"],["▁f","ür"],["▁fü","r"],["▁v","ý"],["ė","l"],["▁a","us"],["▁au","s"],["y","k"],["▁J","ag"],["▁Ja","g"],["f","e"],["▁","ά"],["▁S","o"],["▁k","ell"],["▁ke","ll"],["e","ti"],["et","i"],["u","ll"],["ul","l"],["з","на"],["▁d","it"],["▁di","t"],["▁п","ред"],["▁пре","д"],["a","nie"],["an","ie"],["ani","e"],["κ","α"],["▁","gra"],["▁g","ra"],["▁gr","a"],["t","ies"],["ti","es"],["tie","s"],["▁","sel"],["▁s","el"],["▁se","l"],["a","ms"],["am","s"],["m","is"],["mi","s"],["▁th","is"],["en","do"],["end","o"],["▁A","nd"],["▁An","d"],["▁","pak"],["▁p","ak"],["▁pa","k"],["▁z","á"],["h","i"],["▁","gu"],["▁g","u"],["▁","ur"],["▁u","r"],["h","d"],["▁","ger"],["▁g","er"],["▁ge","r"],["▁","nat"],["▁n","at"],["▁na","t"],["▁t","ot"],["▁to","t"],["e","ní"],["en","í"],["▁μ","ια"],["o","log"],["ol","og"],["olo","g"],["▁","й"],["▁R","e"],["▁","hal"],["▁h","al"],["▁ha","l"],["z","u"],["i","jo"],["ij","o"],["▁","vir"],["▁v","ir"],["▁vi","r"],["▁","pad"],["▁p","ad"],["▁pa","d"],["▁α","υτό"],["▁αυ","τό"],["▁αυτ","ό"],["u","na"],["un","a"],["s","u"],["n","et"],["ne","t"],["п","у"],["▁f","ra"],["▁fr","a"],["m","es"],["me","s"],["l","and"],["la","nd"],["lan","d"],["▁","мы"],["▁м","ы"],["▁V","o"],["д","і"],["o","sa"],["os","a"],["▁","É"],["▁","out"],["▁o","ut"],["▁ou","t"],["o","sta"],["os","ta"],["ost","a"],["▁N","u"],["k","ö"],["a","des"],["ad","es"],["ade","s"],["i","ten"],["it","en"],["ite","n"],["o","ma"],["om","a"],["▁","ie"],["▁i","e"],["▁k","õ"],["c","is"],["ci","s"],["▁","let"],["▁l","et"],["▁le","t"],["▁hu","wa"],["▁","kam"],["▁k","am"],["▁ka","m"],["▁","vr"],["▁v","r"],["▁","cas"],["▁c","as"],["▁ca","s"],["▁s","al"],["▁sa","l"],["▁g","od"],["▁go","d"],["o","vá"],["ov","á"],["▁К","о"],["a","nje"],["an","je"],["w","ie"],["wi","e"],["e","sz"],["es","z"],["l","ä"],["▁est","á"],["▁s","ono"],["▁so","no"],["▁son","o"],["▁","mes"],["▁m","es"],["▁me","s"],["ва","ти"],["ват","и"],["ul","ui"],["m","as"],["ma","s"],["y","d"],["ъ","л"],["▁","ker"],["▁k","er"],["▁ke","r"],["e","v"],["▁и","ма"],["▁им","а"],["▁f","ost"],["▁fo","st"],["▁fos","t"],["al","s"],["▁и","ли"],["г","ра"],["▁","cel"],["▁c","el"],["▁ce","l"],["▁про","сто"],["▁","Р"],["▁P","r"],["▁m","om"],["▁mo","m"],["ē","l"],["▁k","uri"],["▁ku","ri"],["▁kur","i"],["x","x"],["▁","tö"],["▁t","ö"],["o","ka"],["ok","a"],["▁b","ez"],["▁be","z"],["ж","у"],["▁c","an"],["▁ca","n"],["▁","ide"],["▁i","de"],["▁id","e"],["▁m","á"],["n","á"],["i","i"],["ç","a"],["i","ku"],["ik","u"],["л","ко"],["▁H","a"],["на","та"],["▁","ш"],["▁d","ok"],["▁do","k"],["▁S","ingap"],["с","і"],["σ","τε"],["y","ch"],["é","ny"],["én","y"],["g","s"],["ē","t"],["▁","ő"],["n","ih"],["ni","h"],["▁","δια"],["▁δ","ια"],["▁δι","α"],["o","ro"],["or","o"],["▁H","et"],["▁He","t"],["▁J","eg"],["▁Je","g"],["m","it"],["mi","t"],["e","w"],["b","ar"],["ba","r"],["u","dz"],["ud","z"],["▁","wor"],["▁w","or"],["▁wo","r"],["ъ","т"],["▁","oc"],["▁o","c"],["ć","i"],["▁","lab"],["▁l","ab"],["▁la","b"],["i","co"],["ic","o"],["▁","жи"],["▁ж","и"],["o","res"],["or","es"],["ore","s"],["▁","ez"],["▁e","z"],["▁","ov"],["▁o","v"],["▁","ї"],["b","le"],["bl","e"],["j","ud"],["ju","d"],["e","lj"],["el","j"],["▁","ai"],["▁a","i"],["c","ent"],["cen","t"],["▁n","eg"],["▁ne","g"],["▁par","ti"],["▁part","i"],["▁D","ie"],["▁Di","e"],["r","ol"],["ro","l"],["▁m","inn"],["▁min","n"],["▁μ","πο"],["▁t","ut"],["▁tu","t"],["ρ","χ"],["▁c","ap"],["▁ca","p"],["г","да"],["▁v","olt"],["▁vo","lt"],["▁vol","t"],["▁Н","о"],["▁pr","of"],["▁pro","f"],["▁s","eda"],["▁se","da"],["▁sed","a"],["s","ch"],["▁","pen"],["▁p","en"],["▁pe","n"],["б","ы"],["▁","gy"],["▁g","y"],["ă","r"],["д","но"],["r","ov"],["ro","v"],["a","nia"],["an","ia"],["ani","a"],["▁b","eg"],["▁be","g"],["u","mu"],["um","u"],["▁","col"],["▁c","ol"],["▁co","l"],["▁","Г"],["r","ig"],["ri","g"],["i","sen"],["is","en"],["ise","n"],["▁","kat"],["▁k","at"],["▁ka","t"],["l","ev"],["le","v"],["▁","ett"],["▁e","tt"],["▁et","t"],["▁","ně"],["▁n","ě"],["▁n","ep"],["▁ne","p"],["é","k"],["▁p","arte"],["▁par","te"],["▁part","e"],["p","en"],["pe","n"],["▁","ġ"],["▁pol","it"],["i","ej"],["ie","j"],["ā","d"],["t","y"],["ρ","ώ"],["b","r"],["▁v","š"],["▁","ok"],["▁o","k"],["б","у"],["▁","son"],["▁s","on"],["▁so","n"],["σ","α"],["at","ă"],["θ","ε"],["a","jo"],["aj","o"],["▁","ξ"],["▁s","ú"],["ι","ά"],["▁v","æ"],["▁v","äl"],["▁vä","l"],["▁k","ot"],["▁ko","t"],["▁","alla"],["▁al","la"],["▁all","a"],["▁j","ako"],["▁ja","ko"],["▁jak","o"],["l","ad"],["la","d"],["▁f","ac"],["▁fa","c"],["ħ","al"],["ħa","l"],["▁fu","q"],["▁","nar"],["▁n","ar"],["▁na","r"],["▁","še"],["▁š","e"],["▁","мі"],["▁м","і"],["▁j","sem"],["▁js","em"],["▁ž","iv"],["▁ži","v"],["is","sa"],["iss","a"],["▁","μέ"],["▁μ","έ"],["▁p","rze"],["▁pr","ze"],["▁prz","e"],["d","el"],["de","l"],["▁I","s"],["▁","ele"],["▁e","le"],["▁el","e"],["▁d","ur"],["▁du","r"],["▁","като"],["▁ка","то"],["s","zy"],["sz","y"],["▁I","r"],["▁","inst"],["▁in","st"],["▁ins","t"],["ж","да"],["ч","ен"],["че","н"],["▁","ned"],["▁n","ed"],["▁ne","d"],["af","na"],["o","la"],["ol","a"],["ī","t"],["è","re"],["i","gen"],["ig","en"],["ige","n"],["▁","ná"],["▁n","á"],["an","k"],["▁im","port"],["▁imp","ort"],["▁","ну"],["▁н","у"],["g","l"],["π","ε"],["▁","є"],["▁m","õ"],["o","sti"],["os","ti"],["ost","i"],["о","б"],["▁","των"],["▁τ","ων"],["е","те"],["ет","е"],["o","vor"],["ov","or"],["ovo","r"],["u","v"],["el","s"],["e","to"],["et","o"],["▁","rel"],["▁r","el"],["▁re","l"],["ю","т"],["e","mo"],["em","o"],["▁T","h"],["▁","οι"],["▁ο","ι"],["e","no"],["en","o"],["▁t","eg"],["▁te","g"],["u","ni"],["un","i"],["▁t","ako"],["▁ta","ko"],["▁tak","o"],["▁","cent"],["▁c","ent"],["▁cen","t"],["i","té"],["it","é"],["c","ul"],["cu","l"],["▁","ont"],["▁on","t"],["▁","tag"],["▁t","ag"],["▁ta","g"],["▁E","t"],["▁k","es"],["▁ke","s"],["c","ho"],["ch","o"],["t","ak"],["ta","k"],["i","su"],["is","u"],["n","ek"],["ne","k"],["▁","ин"],["▁и","н"],["u","ment"],["um","ent"],["га","то"],["ка","за"],["▁s","ind"],["▁si","nd"],["▁sin","d"],["д","ин"],["ди","н"],["▁S","å"],["τ","ό"],["▁in","f"],["ц","а"],["á","ll"],["ál","l"],["те","л"],["▁","Č"],["▁H","an"],["▁Ha","n"],["п","ро"],["t","aa"],["ta","a"],["▁s","mo"],["▁sm","o"],["▁l","ui"],["▁lu","i"],["u","te"],["ut","e"],["▁di","ff"],["▁dif","f"],["▁","part"],["▁p","art"],["▁pa","rt"],["▁par","t"],["b","re"],["br","e"],["o","ks"],["ok","s"],["ē","c"],["▁","ig"],["▁i","g"],["▁q","ed"],["▁","кон"],["▁к","он"],["▁ко","н"],["τ","έ"],["▁p","ār"],["▁s","pe"],["▁sp","e"],["т","і"],["ġ","ġ"],["e","ten"],["et","en"],["ete","n"],["▁м","ного"],["▁t","un"],["▁tu","n"],["▁t","v"],["▁al","g"],["é","e"],["an","ce"],["n","ych"],["ny","ch"],["a","ju"],["aj","u"],["▁m","ol"],["▁mo","l"],["▁so","bre"],["▁sob","re"],["l","us"],["lu","s"],["▁p","ok"],["▁po","k"],["▁","tim"],["▁t","im"],["▁ti","m"],["á","ny"],["án","y"],["al","ly"],["all","y"],["i","sten"],["is","ten"],["ist","en"],["iste","n"],["▁m","å"],["▁","Ц"],["▁kom","mer"],["▁μ","ου"],["k","ov"],["ko","v"],["▁","has"],["▁h","as"],["▁ha","s"],["▁","¿"],["o","nom"],["on","om"],["ono","m"],["▁u","it"],["α","α"],["n","s"],["▁π","ολ"],["▁πο","λ"],["i","ec"],["ie","c"],["▁d","v"],["▁j","ūs"],["▁v","agy"],["▁va","gy"],["ś","ć"],["▁","Э"],["o","ld"],["ol","d"],["▁в","ъ"],["ci","al"],["cia","l"],["▁ро","з"],["▁","ти"],["▁т","и"],["i","re"],["ir","e"],["i","p"],["er","g"],["i","ks"],["ik","s"],["▁v","l"],["▁m","ūs"],["▁b","ij"],["▁bi","j"],["▁","εν"],["▁ε","ν"],["▁d","ies"],["▁di","es"],["▁die","s"],["▁is","so"],["ij","k"],["▁m","ul"],["▁mu","l"],["▁στη","ν"],["▁E","z"],["▁lah","ko"],["▁m","ož"],["▁mo","ž"],["▁D","u"],["h","l"],["ě","t"],["▁Н","е"],["▁","Ș"],["g","t"],["▁","ví"],["▁v","í"],["z","er"],["ze","r"],["▁","ska"],["▁s","ka"],["▁sk","a"],["▁d","ra"],["▁dr","a"],["▁s","eg"],["▁se","g"],["▁","Х"],["o","ur"],["ou","r"],["▁","geb"],["▁g","eb"],["▁ge","b"],["▁s","unt"],["▁sun","t"],["▁n","am"],["▁na","m"],["o","wa"],["ow","a"],["▁","tek"],["▁t","ek"],["▁te","k"],["v","ed"],["ve","d"],["ст","ва"],["õ","es"],["▁I","t"],["▁g","ran"],["▁gr","an"],["▁gra","n"],["▁pro","gram"],["▁prog","ram"],["▁","ant"],["▁an","t"],["a","ire"],["ai","re"],["air","e"],["но","ст"],["▁S","i"],["▁S","ee"],["▁Se","e"],["σ","ω"],["v","u"],["▁","end"],["▁e","nd"],["▁en","d"],["▁h","ij"],["▁hi","j"],["▁","Έ"],["l","ij"],["li","j"],["ia","ł"],["▁","Î"],["i","ment"],["im","ent"],["▁ħ","afna"],["r","od"],["ro","d"],["▁","ass"],["▁a","ss"],["▁as","s"],["al","iz"],["ali","z"],["m","el"],["me","l"],["я","та"],["ят","а"],["▁","fol"],["▁f","ol"],["▁fo","l"],["s","ti"],["st","i"],["v","id"],["vi","d"],["▁ha","ben"],["▁hab","en"],["▁habe","n"],["▁M","o"],["▁d","ella"],["▁del","la"],["▁dell","a"],["▁pi","ù"],["for","ma"],["form","a"],["ö","s"],["▁M","an"],["▁Ma","n"],["u","de"],["ud","e"],["l","igt"],["li","gt"],["lig","t"],["е","то"],["ет","о"],["▁α","πο"],["▁απ","ο"],["μ","ά"],["m","et"],["me","t"],["em","p"],["as","sa"],["ass","a"],["c","í"],["▁на","с"],["ж","ен"],["же","н"],["▁u","pp"],["▁up","p"],["▁ku","id"],["▁kui","d"],["in","ā"],["▁","Η"],["▁p","oč"],["▁po","č"],["p","ad"],["pa","d"],["p","res"],["pr","es"],["pre","s"],["l","ar"],["la","r"],["▁f","am"],["▁fa","m"],["с","ли"],["y","b"],["a","ka"],["ak","a"],["m","ar"],["ma","r"],["▁ta","ip"],["▁tai","p"],["р","ан"],["ра","н"],["π","α"],["τ","ί"],["ни","х"],["e","ts"],["et","s"],["in","gs"],["ing","s"],["a","vo"],["av","o"],["ο","ι"],["▁fi","nan"],["▁fin","an"],["y","ti"],["yt","i"],["i","tion"],["it","ion"],["iti","on"],["▁A","s"],["u","ks"],["uk","s"],["▁πε","ρι"],["ä","mä"],["äm","ä"],["▁","alt"],["▁a","lt"],["▁al","t"],["▁","ris"],["▁r","is"],["▁ri","s"],["t","é"],["i","ra"],["ir","a"],["▁U","nd"],["▁Un","d"],["t","on"],["to","n"],["▁","lä"],["▁l","ä"],["r","en"],["re","n"],["i","der"],["id","er"],["ide","r"],["в","ы"],["▁O","g"],["▁","gan"],["▁g","an"],["▁ga","n"],["a","ten"],["at","en"],["ate","n"],["č","no"],["▁e","fter"],["▁ef","ter"],["▁","спо"],["▁с","по"],["▁сп","о"],["▁","fe"],["▁f","e"],["▁","dev"],["▁d","ev"],["▁de","v"],["n","ow"],["no","w"],["en","tes"],["ent","es"],["ente","s"],["ны","е"],["▁","vez"],["▁v","ez"],["▁ve","z"],["u","sta"],["us","ta"],["ust","a"],["u","to"],["ut","o"],["▁","rad"],["▁r","ad"],["▁ra","d"],["▁","pun"],["▁p","un"],["▁pu","n"],["k","oll"],["ko","ll"],["kol","l"],["▁E","st"],["▁Es","t"],["▁d","ost"],["▁do","st"],["▁dos","t"],["с","по"],["▁","akt"],["▁a","kt"],["▁ak","t"],["▁","oh"],["▁o","h"],["▁в","ре"],["▁","under"],["▁un","der"],["▁und","er"],["з","ва"],["▁","Л"],["▁I","m"],["▁s","ku"],["▁sk","u"],["ки","й"],["▁s","il"],["▁si","l"],["▁кото","ры"],["▁s","ua"],["▁su","a"],["a","rs"],["ar","s"],["▁Д","а"],["▁","ost"],["▁o","st"],["▁os","t"],["э","э"],["e","lu"],["el","u"],["r","ia"],["ri","a"],["▁","hel"],["▁h","el"],["▁he","l"],["▁k","os"],["▁ko","s"],["▁ka","ip"],["▁kai","p"],["▁għ","and"],["▁għa","nd"],["i","oni"],["io","ni"],["ion","i"],["j","ih"],["ji","h"],["▁","ня"],["▁н","я"],["▁","net"],["▁n","et"],["▁ne","t"],["▁p","ap"],["▁pa","p"],["▁pr","ost"],["▁pro","st"],["▁pros","t"],["т","ы"],["ю","ть"],["ют","ь"],["▁m","ēs"],["▁h","är"],["▁hä","r"],["t","ek"],["te","k"],["▁A","m"],["i","gt"],["ig","t"],["v","ē"],["ü","ü"],["▁","jos"],["▁j","os"],["▁jo","s"],["t","ait"],["ta","it"],["tai","t"],["▁","І"],["▁h","av"],["▁ha","v"],["ш","о"],["r","eb"],["re","b"],["▁p","ag"],["▁pa","g"],["хо","ди"],["ход","и"],["r","id"],["ri","d"],["▁na","ar"],["▁","prav"],["▁p","rav"],["▁pr","av"],["▁pra","v"],["or","n"],["▁m","ot"],["▁mo","t"],["ί","ν"],["c","ha"],["ch","a"],["r","al"],["ra","l"],["▁cont","inu"],["l","d"],["▁","far"],["▁f","ar"],["▁fa","r"],["▁st","ud"],["▁","ess"],["▁e","ss"],["▁es","s"],["▁V","er"],["▁Ve","r"],["▁","он"],["▁о","н"],["īb","as"],["ība","s"],["ė","j"],["ė","jo"],["ėj","o"],["k","in"],["ki","n"],["▁","kra"],["▁k","ra"],["▁kr","a"],["▁av","ec"],["▁ave","c"],["ε","ια"],["ει","α"],["r","az"],["ra","z"],["▁prob","lem"],["▁probl","em"],["▁ή","ταν"],["σ","ο"],["p","et"],["pe","t"],["р","ъ"],["γ","μα"],["▁or","gan"],["▁","vu"],["▁v","u"],["il","s"],["ч","у"],["a","zz"],["az","z"],["д","на"],["▁","pä"],["▁p","ä"],["▁","len"],["▁l","en"],["▁le","n"],["▁ра","бо"],["č","e"],["ä","tt"],["ät","t"],["ρ","εί"],["ρε","ί"],["▁wer","den"],["▁werd","en"],["u","me"],["um","e"],["и","то"],["ar","b"],["▁j","is"],["▁ji","s"],["▁the","y"],["í","n"],["▁d","ec"],["▁de","c"],["во","ри"],["вор","и"],["▁","сто"],["▁с","то"],["▁ст","о"],["▁d","aug"],["▁da","ug"],["▁p","lan"],["▁pl","an"],["▁pla","n"],["▁s","avo"],["▁sa","vo"],["▁sav","o"],["il","la"],["ill","a"],["▁ma","ar"],["è","s"],["▁","vad"],["▁v","ad"],["▁va","d"],["il","or"],["ilo","r"],["u","b"],["▁q","ual"],["▁qu","al"],["g","al"],["ga","l"],["h","al"],["ha","l"],["в","но"],["к","ти"],["кт","и"],["▁","су"],["▁с","у"],["▁","ди"],["▁д","и"],["a","ck"],["ac","k"],["▁ko","ji"],["ι","κή"],["ικ","ή"],["в","ен"],["ве","н"],["▁","wo"],["▁w","o"],["▁al","so"],["▁als","o"],["▁n","åg"],["l","an"],["la","n"],["▁З","а"],["▁","кра"],["▁к","ра"],["▁s","ą"],["▁","Ч"],["▁D","en"],["▁De","n"],["▁s","me"],["▁sm","e"],["▁b","ed"],["▁be","d"],["▁в","ін"],["▁ві","н"],["▁z","v"],["в","я"],["g","et"],["ge","t"],["▁Vi","ņ"],["o","si"],["os","i"],["c","ip"],["ci","p"],["▁п","ід"],["▁пі","д"],["▁st","ran"],["▁str","an"],["▁stra","n"],["▁h","un"],["▁hu","n"],["▁","tid"],["▁t","id"],["▁ti","d"],["▁B","et"],["▁Be","t"],["j","eg"],["je","g"],["▁","õ"],["c","ess"],["ce","ss"],["ces","s"],["r","aw"],["ra","w"],["д","ен"],["де","н"],["▁ко","ито"],["ны","х"],["▁K","om"],["▁Ko","m"],["m","on"],["mo","n"],["o","da"],["od","a"],["▁O","ch"],["ir","m"],["j","n"],["é","p"],["a","rea"],["ar","ea"],["are","a"],["θ","η"],["▁b","ien"],["▁bi","en"],["▁h","uma"],["▁hu","ma"],["▁hum","a"],["o","vi"],["ov","i"],["▁k","ok"],["▁ko","k"],["es","sa"],["ess","a"],["š","a"],["▁","ši"],["▁š","i"],["▁heb","ben"],["▁","ba"],["▁b","a"],["b","ol"],["bo","l"],["▁m","ak"],["▁ma","k"],["▁","ști"],["▁ș","ti"],["s","ka"],["sk","a"],["é","sz"],["és","z"],["č","in"],["či","n"],["▁та","ка"],["▁так","а"],["h","m"],["▁p","rz"],["▁pr","z"],["▁se","in"],["▁sei","n"],["▁si","is"],["v","il"],["vi","l"],["j","ą"],["λ","ά"],["▁p","ut"],["▁pu","t"],["u","a"],["▁","Ν"],["ün","k"],["▁s","itu"],["▁si","tu"],["▁sit","u"],["е","й"],["п","ре"],["▁","ін"],["▁і","н"],["▁s","ell"],["▁se","ll"],["▁sel","l"],["al","la"],["all","a"],["ysl","ím"],["▁s","au"],["▁sa","u"],["▁","ле"],["w","er"],["we","r"],["i","sto"],["is","to"],["ist","o"],["p","od"],["po","d"],["▁en","c"],["▁N","ew"],["▁Ne","w"],["▁","čas"],["▁č","as"],["r","ar"],["ra","r"],["i","f"],["r","á"],["▁b","ilo"],["▁bi","lo"],["▁bil","o"],["š","u"],["▁","ven"],["▁v","en"],["▁ve","n"],["e","e"],["ρ","ού"],["ρο","ύ"],["▁бу","де"],["т","я"],["l","eg"],["le","g"],["e","si"],["es","i"],["▁","му"],["▁м","у"],["▁n","um"],["▁nu","m"],["π","ά"],["▁p","ens"],["▁pe","ns"],["▁pen","s"],["▁h","ija"],["▁hi","ja"],["▁hij","a"],["▁s","amo"],["▁sa","mo"],["▁sam","o"],["▁s","elle"],["▁sel","le"],["▁sell","e"],["▁s","ec"],["▁se","c"],["▁l","ike"],["▁li","ke"],["▁lik","e"],["▁b","om"],["▁bo","m"],["el","f"],["в","ля"],["é","rt"],["ér","t"],["▁ve","ľ"],["t","ų"],["v","it"],["vi","t"],["▁","Δ"],["p","on"],["po","n"],["ț","ă"],["ü","k"],["▁бе","ше"],["â","t"],["f","in"],["fi","n"],["▁","szer"],["▁s","zer"],["▁sz","er"],["▁","πο"],["▁π","ο"],["a","ny"],["an","y"],["▁N","ie"],["▁Ni","e"],["i","ga"],["ig","a"],["▁","uns"],["▁u","ns"],["▁un","s"],["▁g","ru"],["▁gr","u"],["▁","one"],["▁o","ne"],["▁on","e"],["▁по","с"],["χ","ε"],["▁b","ut"],["▁bu","t"],["j","ed"],["je","d"],["i","sa"],["is","a"],["▁j","ot"],["▁jo","t"],["й","те"],["▁k","ön"],["▁kö","n"],["▁qu","ando"],["o","i"],["▁","kal"],["▁k","al"],["▁ka","l"],["▁w","at"],["▁wa","t"],["▁","nost"],["▁n","ost"],["▁no","st"],["▁nos","t"],["▁p","ost"],["▁po","st"],["▁pos","t"],["▁U","m"],["▁s","ul"],["▁su","l"],["▁n","agy"],["▁na","gy"],["▁","xi"],["▁x","i"],["▁wa","ar"],["l","os"],["lo","s"],["s","ten"],["st","en"],["ste","n"],["es","se"],["ess","e"],["▁t","ap"],["▁ta","p"],["▁","sak"],["▁s","ak"],["▁sa","k"],["an","ja"],["▁Z","e"],["am","ento"],["amen","to"],["ament","o"],["π","ει"],["πε","ι"],["a","ją"],["aj","ą"],["▁g","re"],["▁gr","e"],["▁qu","esto"],["▁que","sto"],["ș","i"],["▁A","li"],["▁Al","i"],["▁","ку"],["▁к","у"],["▁","vet"],["▁v","et"],["▁ve","t"],["u","den"],["ud","en"],["ude","n"],["▁s","n"],["i","du"],["id","u"],["▁","nej"],["▁n","ej"],["▁ne","j"],["d","zie"],["dz","ie"],["dzi","e"],["í","s"],["i","vers"],["iv","ers"],["ive","rs"],["iver","s"],["▁p","og"],["▁po","g"],["▁","čo"],["▁č","o"],["i","zz"],["iz","z"],["t","ai"],["ta","i"],["▁ε","κ"],["▁l","jud"],["▁lju","d"],["▁","će"],["▁ć","e"],["τ","ικό"],["τι","κό"],["τικ","ό"],["▁","form"],["▁for","m"],["▁","taj"],["▁t","aj"],["▁ta","j"],["c","io"],["ci","o"],["in","di"],["ind","i"],["l","l"],["▁s","ub"],["▁su","b"],["▁что","бы"],["v","ez"],["ve","z"],["▁","gar"],["▁g","ar"],["▁ga","r"],["▁на","й"],["is","h"],["▁","nik"],["▁n","ik"],["▁ni","k"],["i","stä"],["is","tä"],["ist","ä"],["e","rd"],["er","d"],["▁v","z"],["e","z"],["▁h","is"],["▁hi","s"],["н","ь"],["o","val"],["ov","al"],["ova","l"],["λ","ή"],["▁ε","πι"],["▁επ","ι"],["in","ti"],["int","i"],["і","й"],["▁a","rī"],["▁ar","ī"],["▁s","ont"],["▁son","t"],["▁що","б"],["▁p","rie"],["▁pr","ie"],["▁pri","e"],["▁","liv"],["▁l","iv"],["▁li","v"],["▁t","õ"],["▁mo","ż"],["▁","стра"],["▁с","тра"],["▁ст","ра"],["a","vad"],["av","ad"],["ava","d"],["▁","ben"],["▁b","en"],["▁be","n"],["id","ent"],["iden","t"],["▁l","id"],["▁li","d"],["ī","dz"],["▁","чи"],["▁ч","и"],["a","les"],["al","es"],["ale","s"],["i","ter"],["it","er"],["ite","r"],["k","al"],["ka","l"],["o","du"],["od","u"],["▁Ș","i"],["▁p","ass"],["▁pa","ss"],["▁pas","s"],["ва","не"],["o","ny"],["on","y"],["u","ste"],["us","te"],["ust","e"],["em","me"],["emm","e"],["id","ad"],["ida","d"],["▁","пла"],["▁п","ла"],["j","at"],["ja","t"],["п","ри"],["m","iss"],["mi","ss"],["mis","s"],["▁k","v"],["s","ki"],["sk","i"],["▁w","ill"],["▁wi","ll"],["▁wil","l"],["▁","hand"],["▁h","and"],["▁ha","nd"],["▁han","d"],["t","ra"],["tr","a"],["▁ду","ма"],["▁","σα"],["▁σ","α"],["▁s","tor"],["▁st","or"],["▁sto","r"],["f","a"],["▁","bel"],["▁b","el"],["▁be","l"],["ă","m"],["к","ла"],["▁għ","all"],["▁għa","ll"],["▁għal","l"],["▁","hi"],["▁h","i"],["▁t","ele"],["▁te","le"],["▁tel","e"],["ch","é"],["▁k","dy"],["EE","EE"],["є","ться"],["▁d","id"],["▁di","d"],["▁Tak","že"],["▁d","ist"],["▁di","st"],["▁dis","t"],["λ","έ"],["д","я"],["ны","й"],["o","vat"],["ov","at"],["ova","t"],["ó","s"],["ț","ii"],["ți","i"],["c","ija"],["ci","ja"],["cij","a"],["t","ic"],["ti","c"],["▁","dej"],["▁d","ej"],["▁de","j"],["ви","те"],["▁c","r"],["it","et"],["ite","t"],["▁","chi"],["▁c","hi"],["▁ch","i"],["z","ione"],["zi","one"],["zion","e"],["▁s","ed"],["▁se","d"],["u","ss"],["us","s"],["n","ud"],["nu","d"],["▁","dag"],["▁d","ag"],["▁da","g"],["a","tions"],["at","ions"],["ati","ons"],["ation","s"],["s","eb"],["se","b"],["▁d","ov"],["▁do","v"],["▁t","an"],["▁ta","n"],["c","ep"],["ce","p"],["ț","ie"],["ți","e"],["ί","ζ"],["▁","gi"],["▁g","i"],["č","en"],["če","n"],["▁k","ako"],["▁ka","ko"],["▁kak","o"],["ω","ω"],["δ","ο"],["▁s","olo"],["▁so","lo"],["▁sol","o"],["wa","ż"],["▁H","o"],["i","ska"],["is","ka"],["isk","a"],["▁s","pr"],["▁sp","r"],["▁","né"],["▁n","é"],["y","r"],["φ","ο"],["m","od"],["mo","d"],["n","om"],["no","m"],["k","as"],["ka","s"],["▁S","p"],["h","te"],["ht","e"],["▁j","ust"],["▁ju","st"],["▁jus","t"],["ċ","ċ"],["ā","ju"],["āj","u"],["▁h","ist"],["▁hi","st"],["▁his","t"],["▁","å"],["ва","т"],["▁f","az"],["▁fa","z"],["on","n"],["▁та","ко"],["▁так","о"],["о","н"],["▁е","го"],["▁","ś"],["▁v","ra"],["▁vr","a"],["▁α","να"],["▁αν","α"],["▁sk","ulle"],["▁m","ě"],["▁a","qu"],["▁","bra"],["▁b","ra"],["▁br","a"],["v","ä"],["▁k","now"],["▁kn","ow"],["l","io"],["li","o"],["u","la"],["ul","a"],["a","ja"],["aj","a"],["с","ту"],["ст","у"],["▁O","n"],["▁C","o"],["▁","cin"],["▁c","in"],["▁ci","n"],["al","is"],["ali","s"],["▁h","ier"],["▁hi","er"],["v","ir"],["vi","r"],["▁","asi"],["▁a","si"],["▁as","i"],["ī","j"],["▁j","á"],["▁h","át"],["▁há","t"],["▁s","or"],["▁so","r"],["i","va"],["iv","a"],["▁g","ener"],["▁ge","ner"],["▁gen","er"],["▁m","ond"],["▁mo","nd"],["▁mon","d"],["ό","τε"],["l","at"],["la","t"],["ни","м"],["▁t","ul"],["▁tu","l"],["▁h","emm"],["▁he","mm"],["▁hem","m"],["κ","ό"],["i","ld"],["il","d"],["▁πολ","ύ"],["▁do","or"],["e","sp"],["es","p"],["▁o","ok"],["▁j","oka"],["▁jo","ka"],["▁s","ou"],["▁so","u"],["b","or"],["bo","r"],["z","ą"],["▁","ком"],["▁ко","м"],["e","sch"],["es","ch"],["esc","h"],["a","tor"],["at","or"],["ato","r"],["▁","esc"],["▁es","c"],["п","ер"],["пе","р"],["▁","wię"],["▁wi","ę"],["▁H","än"],["γ","ο"],["▁","ä"],["o","vo"],["ov","o"],["▁Î","n"],["▁","же"],["▁ж","е"],["▁n","ev"],["▁ne","v"],["h","ekk"],["he","kk"],["▁","zna"],["▁z","na"],["▁zn","a"],["▁F","ran"],["h","ing"],["hin","g"],["▁","ace"],["▁a","ce"],["▁ac","e"],["▁E","U"],["▁de","i"],["ν","έ"],["ő","l"],["▁Ц","е"],["▁za","č"],["▁","år"],["▁å","r"],["g","li"],["gl","i"],["к","ра"],["▁","ту"],["▁т","у"],["▁n","ii"],["▁ni","i"],["▁p","rom"],["▁pr","om"],["▁pro","m"],["▁","hom"],["▁h","om"],["▁ho","m"],["u","ta"],["ut","a"],["е","тся"],["ет","ся"],["▁A","z"],["ч","ки"],["r","op"],["ro","p"],["ar","te"],["art","e"],["▁e","ff"],["▁ef","f"],["ħ","ħ"],["ê","tre"],["s","to"],["st","o"],["▁Т","а"],["▁v","end"],["▁ve","nd"],["▁ven","d"],["▁m","ida"],["▁mi","da"],["▁mid","a"],["▁b","as"],["▁ba","s"],["▁ü","ber"],["▁M","as"],["▁Ma","s"],["▁","ed"],["▁e","d"],["▁ve","č"],["un","gen"],["ung","en"],["τ","ικά"],["τι","κά"],["τικ","ά"],["▁a","š"],["▁D","er"],["▁De","r"],["▁ко","ли"],["▁","Γ"],["б","ва"],["ó","d"],["ι","κά"],["ικ","ά"],["▁B","o"],["▁","pet"],["▁p","et"],["▁pe","t"],["e","p"],["π","οι"],["πο","ι"],["c","ut"],["cu","t"],["i","č"],["ł","em"],["łe","m"],["▁k","ans"],["▁ka","ns"],["▁kan","s"],["i","mas"],["im","as"],["ima","s"],["▁са","мо"],["b","al"],["ba","l"],["u","da"],["ud","a"],["▁","ret"],["▁r","et"],["▁re","t"],["▁N","em"],["▁Ne","m"],["o","ss"],["os","s"],["▁n","är"],["▁nä","r"],["ρ","ή"],["▁t","ad"],["▁ta","d"],["▁","ovat"],["▁o","vat"],["▁ov","at"],["▁α","λλά"],["ș","te"],["k","ar"],["ka","r"],["▁ni","in"],["▁nii","n"],["▁viņ","š"],["l","jen"],["lj","en"],["▁κ","άν"],["▁κά","ν"],["▁tr","ans"],["▁tra","ns"],["▁tran","s"],["ī","bu"],["īb","u"],["▁va","in"],["▁vai","n"],["▁Э","то"],["▁p","ří"],["▁př","í"],["č","u"],["▁","kul"],["▁k","ul"],["▁ku","l"],["qu","es"],["que","s"],["▁z","as"],["▁za","s"],["▁о","ни"],["▁он","и"],["at","ud"],["atu","d"],["f","ici"],["fi","ci"],["fic","i"],["i","kt"],["ik","t"],["▁й","ого"],["▁vide","o"],["▁d","isse"],["▁dis","se"],["▁diss","e"],["▁","ins"],["▁i","ns"],["▁in","s"],["▁P","a"],["e","a"],["ū","t"],["▁fil","m"],["u","w"],["▁v","ia"],["▁vi","a"],["ä","nd"],["än","d"],["▁G","e"],["i","nes"],["in","es"],["ine","s"],["ря","бва"],["an","da"],["and","a"],["t","al"],["ta","l"],["a","gi"],["ag","i"],["▁во","ни"],["c","hod"],["ch","od"],["cho","d"],["▁ka","ž"],["▁t","ego"],["▁te","go"],["▁teg","o"],["к","лю"],["▁","pan"],["▁p","an"],["▁pa","n"],["r","d"],["m","al"],["ma","l"],["a","mis"],["am","is"],["ami","s"],["▁","kli"],["▁k","li"],["▁kl","i"],["▁mu","ito"],["▁","set"],["▁s","et"],["▁se","t"],["▁ε","ξ"],["ци","и"],["в","ър"],["▁fr","ån"],["n","ym"],["ny","m"],["k","az"],["ka","z"],["n","og"],["no","g"],["b","ra"],["br","a"],["í","te"],["ít","e"],["к","е"],["▁j","ie"],["▁ji","e"],["▁","lig"],["▁l","ig"],["▁li","g"],["ъ","де"],["um","p"],["▁be","h"],["ē","ja"],["ēj","a"],["▁d","war"],["▁je","ho"],["p","ra"],["pr","a"],["▁qu","el"],["▁que","l"],["▁","три"],["▁т","ри"],["▁f","un"],["▁fu","n"],["it","ate"],["ita","te"],["e","mente"],["em","ente"],["eme","nte"],["ement","e"],["zz","joni"],["re","i"],["▁","ζ"],["l","ut"],["lu","t"],["o","to"],["ot","o"],["h","ar"],["ha","r"],["▁Κ","αι"],["ř","e"],["ре","д"],["▁S","a"],["▁kö","z"],["▁võ","i"],["▁któ","re"],["ва","ли"],["вал","и"],["▁su","per"],["▁","ļ"],["ż","a"],["▁P","or"],["▁Po","r"],["u","ti"],["ut","i"],["▁","доб"],["▁д","об"],["▁до","б"],["ç","ões"],["▁Т","ак"],["▁Та","к"],["ż","y"],["i","nte"],["in","te"],["int","e"],["▁","ні"],["▁н","і"],["a","ble"],["ab","le"],["r","eg"],["re","g"],["▁lu","c"],["ι","κό"],["ικ","ό"],["▁A","t"],["▁","á"],["▁de","ze"],["▁dez","e"],["t","id"],["ti","d"],["▁","turi"],["▁t","uri"],["▁tu","ri"],["▁tur","i"],["ur","de"],["urd","e"],["▁о","ста"],["▁ос","та"],["▁n","eb"],["▁ne","b"],["n","ic"],["ni","c"],["▁D","ar"],["▁Da","r"],["▁s","ist"],["▁si","st"],["▁sis","t"],["n","im"],["ni","m"],["▁n","el"],["▁ne","l"],["c","ar"],["ca","r"],["▁e","uro"],["▁eu","ro"],["y","an"],["ya","n"],["▁","aff"],["▁a","ff"],["▁af","f"],["u","rt"],["ur","t"],["т","ри"],["▁v","ast"],["▁va","st"],["▁vas","t"],["g","r"],["i","vo"],["iv","o"],["▁b","lev"],["▁bl","ev"],["▁ble","v"],["A","A"],["▁я","кі"],["▁як","і"],["č","iau"],["či","au"],["▁M","in"],["▁Mi","n"],["am","p"],["▁ко","ето"],["▁z","m"],["▁F","or"],["▁f","rom"],["▁fr","om"],["▁m","ost"],["▁mo","st"],["▁m","ir"],["▁mi","r"],["π","ου"],["πο","υ"],["▁am","ely"],["о","на"],["он","а"],["▁m","ô"],["i","sche"],["is","che"],["isch","e"],["▁e","inen"],["▁ei","nen"],["▁ein","en"],["▁eine","n"],["s","im"],["si","m"],["▁t","ym"],["▁ty","m"],["▁T","as"],["▁Ta","s"],["▁","nim"],["▁n","im"],["▁ni","m"],["▁д","ва"],["▁a","ber"],["▁ab","er"],["м","ер"],["ме","р"],["▁com","me"],["▁","zem"],["▁z","em"],["▁ze","m"],["x","t"],["l","ie"],["li","e"],["i","ki"],["ik","i"],["а","р"],["í","me"],["ím","e"],["▁t","ien"],["▁ti","en"],["▁tie","n"],["en","den"],["end","en"],["ende","n"],["f","el"],["fe","l"],["y","en"],["ye","n"],["▁in","form"],["▁r","end"],["▁re","nd"],["▁ren","d"],["ċ","i"],["d","an"],["da","n"],["▁","чу"],["▁ч","у"],["▁","cil"],["▁c","il"],["▁ci","l"],["c","ket"],["ck","et"],["▁u","til"],["▁ut","il"],["a","ga"],["ag","a"],["▁P","er"],["▁Pe","r"],["α","σ"],["▁","sä"],["▁s","ä"],["ци","я"],["▁","Ž"],["▁z","ab"],["▁za","b"],["▁","cos"],["▁c","os"],["▁co","s"],["ż","da"],["▁М","и"],["▁j","ew"],["▁je","w"],["▁t","out"],["▁to","ut"],["▁tou","t"],["▁v","ēl"],["▁vē","l"],["id","ade"],["ida","de"],["idad","e"],["z","o"],["▁st","rat"],["▁str","at"],["▁stra","t"],["▁d","ir"],["▁di","r"],["▁b","ila"],["▁bi","la"],["▁bil","a"],["i","tar"],["it","ar"],["ita","r"],["e","ket"],["ek","et"],["el","lo"],["ell","o"],["p","ort"],["po","rt"],["por","t"],["u","ten"],["ut","en"],["ute","n"],["δ","ε"],["▁S","u"],["u","ns"],["un","s"],["e","ft"],["ef","t"],["▁f","og"],["▁fo","g"],["▁A","h"],["▁v","oi"],["▁vo","i"],["h","y"],["f","en"],["fe","n"],["ś","li"],["śl","i"],["▁z","ak"],["▁za","k"],["i","el"],["ie","l"],["є","те"],["er","ne"],["ern","e"],["▁с","лу"],["▁ku","in"],["▁kui","n"],["i","ny"],["in","y"],["▁væ","re"],["π","ω"],["an","ts"],["ant","s"],["▁т","ого"],["▁то","го"],["ь","ого"],["▁n","ach"],["▁na","ch"],["▁m","utta"],["am","b"],["▁o","der"],["▁od","er"],["▁","пер"],["▁п","ер"],["▁пе","р"],["▁N","on"],["▁No","n"],["æ","n"],["it","el"],["ite","l"],["▁s","lu"],["▁sl","u"],["▁Т","е"],["el","len"],["ell","en"],["elle","n"],["o","men"],["om","en"],["ome","n"],["▁s","voj"],["▁sv","oj"],["▁svo","j"],["aj","ú"],["в","ле"],["▁au","ch"],["u","mi"],["um","i"],["g","ħu"],["għ","u"],["o","ut"],["ou","t"],["c","hi"],["ch","i"],["▁w","ird"],["▁wi","rd"],["▁wir","d"],["▁ktor","é"],["▁D","as"],["▁Da","s"],["▁j","ej"],["▁je","j"],["▁A","mer"],["▁Am","er"],["ś","my"],["j","ek"],["je","k"],["k","lad"],["kl","ad"],["kla","d"],["▁k","oh"],["▁ko","h"],["p","ä"],["l","ag"],["la","g"],["▁H","u"],["u","tt"],["ut","t"],["v","ent"],["ven","t"],["ē","m"],["▁l","oc"],["▁lo","c"],["▁","zin"],["▁z","in"],["▁zi","n"],["▁а","ле"],["t","ää"],["tä","ä"],["▁ka","ik"],["▁kai","k"],["▁","ima"],["▁i","ma"],["▁im","a"],["o","ver"],["ov","er"],["ove","r"],["μ","η"],["st","ru"],["str","u"],["v","ien"],["vi","en"],["vie","n"],["a","mas"],["am","as"],["ama","s"],["is","se"],["iss","e"],["a","men"],["am","en"],["ame","n"],["i","vat"],["iv","at"],["iva","t"],["á","ci"],["ž","en"],["že","n"],["▁a","cc"],["▁ac","c"],["o","de"],["od","e"],["▁en","tre"],["▁ent","re"],["▁","ville"],["▁v","ille"],["▁vil","le"],["▁vill","e"],["▁s","ar"],["▁sa","r"],["τ","ική"],["τι","κή"],["τικ","ή"],["e","ster"],["es","ter"],["est","er"],["este","r"],["▁Y","ou"],["▁h","ade"],["▁ha","de"],["▁had","e"],["t","aj"],["ta","j"],["▁","sti"],["▁s","ti"],["▁st","i"],["t","it"],["ti","t"],["▁","ties"],["▁t","ies"],["▁ti","es"],["▁tie","s"],["▁T","r"],["▁tie","għu"],["▁tiegħ","u"],["n","em"],["ne","m"],["т","ому"],["то","му"],["том","у"],["o","bb"],["ob","b"],["▁t","af"],["▁ta","f"],["v","á"],["▁K","a"],["a","bil"],["ab","il"],["▁","kao"],["▁k","ao"],["▁ka","o"],["▁m","ens"],["▁me","ns"],["▁men","s"],["▁M","is"],["▁Mi","s"],["i","ver"],["iv","er"],["ive","r"],["▁D","an"],["▁Da","n"],["o","ga"],["og","a"],["v","í"],["ва","ть"],["ват","ь"],["h","ol"],["ho","l"],["▁c","li"],["▁cl","i"],["h","an"],["ha","n"],["▁p","ris"],["▁pr","is"],["▁pri","s"],["c","her"],["ch","er"],["che","r"],["к","і"],["o","kat"],["ok","at"],["oka","t"],["j","av"],["ja","v"],["t","ed"],["te","d"],["c","c"],["▁","Ф"],["s","tr"],["st","r"],["▁","publi"],["▁pu","bli"],["▁","nom"],["▁n","om"],["▁no","m"],["n","ą"],["▁","our"],["▁o","ur"],["▁ou","r"],["▁s","kal"],["▁sk","al"],["▁ska","l"],["o","vé"],["ov","é"],["s","ke"],["sk","e"],["f","ör"],["et","ti"],["ett","i"],["▁","vie"],["▁v","ie"],["▁vi","e"],["▁","št"],["▁š","t"],["▁C","on"],["▁Co","n"],["▁","lav"],["▁l","av"],["▁la","v"],["s","ak"],["sa","k"],["k","ur"],["ku","r"],["▁p","rob"],["▁pr","ob"],["▁pro","b"],["or","k"],["ö","t"],["▁ke","ď"],["▁vi","ņa"],["▁viņ","a"],["έ","ρ"],["▁re","du"],["▁red","u"],["o","do"],["od","o"],["f","r"],["▁s","ho"],["▁sh","o"],["▁s","ve"],["▁sv","e"],["ch","ten"],["cht","en"],["chte","n"],["▁t","ror"],["▁tr","or"],["▁tro","r"],["▁","arb"],["▁ar","b"],["▁ž","el"],["▁že","l"],["▁d","ro"],["▁dr","o"],["μα","τα"],["▁т","рябва"],["v","es"],["ve","s"],["▁t","iet"],["▁ti","et"],["▁tie","t"],["▁То","ва"],["a","bb"],["ab","b"],["ни","к"],["▁t","iek"],["▁ti","ek"],["▁tie","k"],["ν","ω"],["▁b","us"],["▁bu","s"],["▁ma","in"],["▁mai","n"],["▁з","ро"],["in","ter"],["int","er"],["inte","r"],["a","das"],["ad","as"],["ada","s"],["it","ă"],["r","ai"],["ra","i"],["i","tal"],["it","al"],["ita","l"],["▁js","ou"],["ó","b"],["▁f","å"],["▁в","си"],["ц","я"],["am","me"],["amm","e"],["▁бе","з"],["▁k","ir"],["▁ki","r"],["▁j","ums"],["▁ju","ms"],["r","ž"],["х","и"],["▁R","o"],["▁svo","je"],["▁svoj","e"],["ī","g"],["▁","pil"],["▁p","il"],["▁pi","l"],["▁m","ie"],["▁mi","e"],["▁","ras"],["▁r","as"],["▁ra","s"],["l","in"],["li","n"],["▁","тому"],["▁т","ому"],["▁то","му"],["▁том","у"],["▁E","i"],["▁k","ann"],["▁kan","n"],["ī","gi"],["īg","i"],["▁f","oi"],["▁fo","i"],["▁p","ow"],["▁po","w"],["é","d"],["r","ze"],["rz","e"],["▁la","ik"],["▁lai","k"],["▁th","ere"],["▁the","re"],["▁","lie"],["▁l","ie"],["▁li","e"],["a","mat"],["am","at"],["ama","t"],["▁tod","os"],["▁todo","s"],["▁","ul"],["▁u","l"],["▁d","ou"],["▁do","u"],["▁K","u"],["▁in","forma"],["▁inform","a"],["k","ed"],["ke","d"],["á","ri"],["ár","i"],["ē","tu"],["ēt","u"],["▁m","int"],["▁min","t"],["λ","ι"],["▁L","es"],["▁Le","s"],["k","us"],["ku","s"],["a","zione"],["az","ione"],["▁pr","í"],["▁é","té"],["▁ét","é"],["▁п","от"],["▁по","т"],["ль","ко"],["▁t","udi"],["▁tu","di"],["▁tud","i"],["▁l","äh"],["▁lä","h"],["o","lu"],["ol","u"],["e","lijk"],["el","ijk"],["elij","k"],["▁d","od"],["▁do","d"],["▁m","ö"],["τη","τα"],["▁T","er"],["▁Te","r"],["▁b","ħal"],["▁bħ","al"],["▁","ση"],["▁σ","η"],["n","ých"],["ný","ch"],["ć","e"],["▁","lan"],["▁l","an"],["▁la","n"],["c","em"],["ce","m"],["▁d","la"],["▁dl","a"],["▁p","ero"],["▁pe","ro"],["▁per","o"],["g","ar"],["ga","r"],["c","hte"],["ch","te"],["cht","e"],["en","ts"],["ent","s"],["▁v","ores"],["▁vo","res"],["▁vor","es"],["il","lä"],["ill","ä"],["o","gra"],["og","ra"],["▁kter","é"],["e","nie"],["en","ie"],["eni","e"],["▁","lin"],["▁l","in"],["▁li","n"],["▁k","ind"],["▁ki","nd"],["l","ament"],["la","ment"],["lam","ent"],["▁ко","гда"],["o","up"],["ou","p"],["▁d","ot"],["▁do","t"],["▁","asta"],["▁a","sta"],["▁as","ta"],["▁ast","a"],["▁","X"],["▁f","ait"],["▁fa","it"],["▁ne","ed"],["▁на","пра"],["ova","ť"],["▁H","ar"],["▁Ha","r"],["▁m","id"],["▁mi","d"],["▁f","at"],["▁fa","t"],["▁","mel"],["▁m","el"],["▁me","l"],["i","ji"],["ij","i"],["▁ve","el"],["ġ","a"],["▁s","ai"],["▁sa","i"],["z","ie"],["zi","e"],["ci","ones"],["cio","nes"],["cion","es"],["k","ār"],["▁","hen"],["▁h","en"],["▁he","n"],["t","ura"],["tu","ra"],["▁d","rž"],["▁dr","ž"],["▁P","ri"],["▁Pr","i"],["▁","nou"],["▁n","ou"],["▁no","u"],["▁","ner"],["▁n","er"],["▁ne","r"],["r","is"],["ri","s"],["▁a","zt"],["▁az","t"],["▁w","enn"],["ро","м"],["μ","ό"],["▁E","le"],["▁El","e"],["▁с","каза"],["р","т"],["▁","aktar"],["▁ak","tar"],["▁akt","ar"],["▁E","m"],["▁","rez"],["▁r","ez"],["▁re","z"],["▁c","um"],["▁cu","m"],["e","di"],["ed","i"],["τ","ού"],["το","ύ"],["ти","ся"],["▁b","ude"],["▁bu","de"],["▁bud","e"],["he","id"],["▁A","k"],["▁t","ol"],["▁to","l"],["а","н"],["▁b","ek"],["▁be","k"],["δ","α"],["j","uk"],["ju","k"],["n","ia"],["ni","a"],["▁b","ara"],["▁ba","ra"],["▁bar","a"],["о","му"],["▁m","ult"],["▁mu","lt"],["▁mul","t"],["el","lä"],["ell","ä"],["ri","bu"],["rib","u"],["i","ster"],["is","ter"],["ist","er"],["iste","r"],["▁W","ir"],["s","å"],["▁ale","bo"],["m","at"],["ma","t"],["id","än"],["▁","gli"],["▁g","li"],["▁gl","i"],["k","st"],["ks","t"],["el","se"],["els","e"],["v","ers"],["ve","rs"],["ver","s"],["▁p","rod"],["▁pr","od"],["▁pro","d"],["▁w","hat"],["▁wh","at"],["▁Ε","ί"],["▁","jih"],["▁j","ih"],["▁ji","h"],["c","tion"],["ct","ion"],["cti","on"],["▁prin","cip"],["▁","ao"],["▁a","o"],["▁con","c"],["á","ban"],["áb","an"],["l","em"],["le","m"],["▁бо","ль"],["▁re","al"],["τ","υ"],["ны","м"],["▁Jo","hn"],["▁me","get"],["▁meg","et"],["▁","ili"],["▁i","li"],["▁il","i"],["▁m","ore"],["▁mo","re"],["▁mor","e"],["▁k","if"],["▁ki","f"],["▁","sit"],["▁s","it"],["▁si","t"],["an","tes"],["ant","es"],["ante","s"],["▁v","ara"],["▁va","ra"],["▁var","a"],["▁l","il"],["▁li","l"],["▁bar","dz"],["e","jn"],["ej","n"],["▁","get"],["▁g","et"],["▁ge","t"],["▁ne","bo"],["▁neb","o"],["▁j","ā"],["▁P","re"],["▁Pr","e"],["▁A","b"],["▁z","b"],["u","jem"],["uj","em"],["uje","m"],["im","ą"],["j","an"],["ja","n"],["▁b","is"],["▁bi","s"],["в","ет"],["ве","т"],["▁te","h"],["▁","ning"],["▁n","ing"],["▁nin","g"],["▁K","o"],["▁","if"],["▁i","f"],["▁tag","ħna"],["▁tagħ","na"],["▁s","yst"],["▁sy","st"],["g","ħa"],["għ","a"],["t","igt"],["ti","gt"],["tig","t"],["▁a","iz"],["▁ai","z"],["k","or"],["ko","r"],["▁ö","ver"],["с","ля"],["sz","yst"],["szy","st"],["S","S"],["γ","α"],["ka","an"],["kaa","n"],["el","li"],["ell","i"],["▁","гра"],["▁г","ра"],["j","ar"],["ja","r"],["▁se","u"],["ρ","ισ"],["ρι","σ"],["▁s","egu"],["▁se","gu"],["▁seg","u"],["▁h","ans"],["▁ha","ns"],["▁han","s"],["κ","ο"],["i","ju"],["ij","u"],["▁t","ied"],["▁ti","ed"],["▁tie","d"],["j","ę"],["j","as"],["ja","s"],["▁M","i"],["▁","тя"],["▁т","я"],["▁A","d"],["▁","hod"],["▁h","od"],["▁ho","d"],["μ","β"],["▁","θέ"],["▁θ","έ"],["h","ren"],["hr","en"],["▁n","ez"],["▁ne","z"],["р","ен"],["ре","н"],["▁","пи"],["▁п","и"],["▁z","am"],["▁za","m"],["▁r","esp"],["▁re","sp"],["▁res","p"],["▁","ban"],["▁b","an"],["▁ba","n"],["▁на","ши"],["h","ts"],["ht","s"],["n","ou"],["no","u"],["ž","it"],["ži","t"],["▁","bru"],["▁b","ru"],["▁br","u"],["▁C","ar"],["▁I","nd"],["▁In","d"],["▁pro","ces"],["▁proc","es"],["ț","a"],["u","o"],["ф","и"],["p","at"],["pa","t"],["▁M","ais"],["▁Ma","is"],["▁v","šet"],["▁vš","et"],["▁vše","t"],["k","si"],["ks","i"],["t","ern"],["ter","n"],["▁m","än"],["▁mä","n"],["ρέ","πει"],["▁ва","с"],["c","ti"],["ct","i"],["z","em"],["ze","m"],["▁ex","ist"],["▁k","il"],["▁ki","l"],["a","ke"],["ak","e"],["i","ro"],["ir","o"],["ta","in"],["tai","n"],["j","t"],["a","di"],["ad","i"],["ф","ор"],["l","ing"],["lin","g"],["▁g","os"],["▁go","s"],["▁he","eft"],["▁nu","est"],["▁nue","st"],["š","č"],["a","ut"],["au","t"],["▁Τ","ο"],["▁","plat"],["▁p","lat"],["▁pl","at"],["▁pla","t"],["▁m","ijn"],["▁mi","jn"],["▁mij","n"],["▁og","så"],["▁p","řed"],["▁př","ed"],["k","li"],["kl","i"],["▁","rig"],["▁r","ig"],["▁ri","g"],["▁","bre"],["▁b","re"],["▁br","e"],["▁у","с"],["z","ő"],["ig","n"],["▁B","ut"],["▁Bu","t"],["▁En","t"],["▁m","í"],["▁","ві"],["▁в","і"],["it","as"],["ita","s"],["▁h","yv"],["▁hy","v"],["▁v","re"],["▁vr","e"],["▁ά","λλ"],["▁ess","ere"],["▁esse","re"],["j","al"],["ja","l"],["υ","τό"],["υτ","ό"],["▁","forma"],["▁for","ma"],["▁form","a"],["o","għ"],["og","ħ"],["m","ä"],["σ","ουμε"],["▁s","aj"],["▁sa","j"],["▁E","x"],["▁h","on"],["▁ho","n"],["▁","jer"],["▁j","er"],["▁je","r"],["▁kdy","ž"],["▁k","ül"],["▁kü","l"],["з","во"],["i","zi"],["iz","i"],["▁t","est"],["▁te","st"],["▁D","o"],["▁s","pre"],["▁sp","re"],["▁spr","e"],["c","hu"],["ch","u"],["є","мо"],["il","li"],["ill","i"],["▁mo","ment"],["▁mom","ent"],["▁","üt"],["▁ü","t"],["▁","port"],["▁p","ort"],["▁po","rt"],["▁por","t"],["p","ēc"],["▁ε","πί"],["▁επ","ί"],["▁d","oll"],["▁do","ll"],["▁dol","l"],["a","sz"],["as","z"],["n","ego"],["ne","go"],["▁y","our"],["▁yo","ur"],["▁you","r"],["▁b","iz"],["▁bi","z"],["▁","hem"],["▁h","em"],["▁he","m"],["▁a","ș"],["▁по","лу"],["▁f","ort"],["▁fo","rt"],["▁for","t"],["ни","и"],["l","ijk"],["lij","k"],["▁","stat"],["▁st","at"],["▁sta","t"],["o","so"],["os","o"],["▁f","ace"],["▁fa","ce"],["▁fac","e"],["▁б","іль"],["▁бі","ль"],["▁j","ekk"],["▁je","kk"],["▁gr","ande"],["▁gran","de"],["▁grand","e"],["p","h"],["▁por","que"],["ħ","a"],["l","ep"],["le","p"],["▁b","ę"],["▁D","ob"],["▁Do","b"],["ö","ra"],["ör","a"],["▁","land"],["▁l","and"],["▁la","nd"],["▁lan","d"],["i","lt"],["il","t"],["ė","ti"],["ėt","i"],["м","ы"],["▁m","ums"],["▁mu","ms"],["▁n","jeg"],["▁nj","eg"],["▁b","iti"],["▁bi","ti"],["▁bit","i"],["v","é"],["▁O","d"],["bi","amo"],["▁an","che"],["▁anc","he"],["r","ot"],["ro","t"],["ре","з"],["▁","ó"],["aj","ā"],["▁t","w"],["e","gen"],["eg","en"],["ege","n"],["is","ia"],["isi","a"],["▁S","te"],["▁St","e"],["θ","εί"],["θε","ί"],["б","ле"],["▁","czy"],["▁c","zy"],["▁cz","y"],["▁","ec"],["▁e","c"],["▁","кой"],["▁ко","й"],["i","kor"],["ik","or"],["iko","r"],["▁","ani"],["▁a","ni"],["▁an","i"],["▁до","л"],["ad","d"],["▁c","ând"],["▁câ","nd"],["ū","r"],["▁κα","τα"],["▁w","orden"],["▁wor","den"],["▁word","en"],["l","am"],["la","m"],["▁","vas"],["▁v","as"],["▁va","s"],["▁пра","ви"],["▁s","tra"],["▁st","ra"],["▁str","a"],["jon","ijiet"],["joni","jiet"],["▁É","s"],["i","tiv"],["it","iv"],["iti","v"],["s","zer"],["sz","er"],["l","ov"],["lo","v"],["▁t","ema"],["▁te","ma"],["▁tem","a"],["▁c","ette"],["▁cet","te"],["▁","eks"],["▁e","ks"],["▁","tor"],["▁t","or"],["▁to","r"],["v","oj"],["vo","j"],["▁v","ě"],["▁b","em"],["▁be","m"],["с","к"],["▁com","pl"],["▁comp","l"],["m","m"],["p","rav"],["pr","av"],["pra","v"],["▁","fer"],["▁f","er"],["▁fe","r"],["▁h","ac"],["▁ha","c"],["▁s","at"],["▁sa","t"],["т","ся"],["▁К","а"],["▁j","in"],["▁ji","n"],["▁z","ad"],["▁za","d"],["j","or"],["jo","r"],["▁E","u"],["▁s","y"],["e","ner"],["en","er"],["ene","r"],["j","ak"],["ja","k"],["r","ib"],["ri","b"],["▁g","dy"],["z","et"],["ze","t"],["v","in"],["vi","n"],["▁","ők"],["▁ő","k"],["ф","е"],["ig","ht"],["igh","t"],["ö","d"],["▁my","cket"],["az","ă"],["▁","ø"],["p","le"],["pl","e"],["т","ра"],["▁f","ir"],["▁fi","r"],["че","ски"],["▁l","ug"],["▁lu","g"],["n","an"],["na","n"],["é","ri"],["ér","i"],["et","ta"],["ett","a"],["▁z","ar"],["▁za","r"],["б","ли"],["▁","ээ"],["▁э","э"],["▁j","är"],["▁jä","r"],["▁p","are"],["▁pa","re"],["▁par","e"],["▁L","u"],["k","á"],["e","den"],["ed","en"],["ede","n"],["▁","bor"],["▁b","or"],["▁bo","r"],["▁бы","л"],["▁","eles"],["▁e","les"],["▁el","es"],["▁ele","s"],["ύ","τε"],["д","ь"],["▁","ħa"],["▁ħ","a"],["▁d","av"],["▁da","v"],["▁d","acă"],["▁da","că"],["▁A","u"],["▁n","atur"],["▁nat","ur"],["l","t"],["▁A","c"],["▁mol","to"],["▁B","r"],["▁gl","ob"],["▁","stand"],["▁st","and"],["▁sta","nd"],["▁stan","d"],["ε","τε"],["τ","σι"],["▁α","π"],["▁k","w"],["k","ej"],["ke","j"],["▁","bal"],["▁b","al"],["▁ba","l"],["ur","ile"],["uri","le"],["n","is"],["ni","s"],["▁k","ak"],["▁ka","k"],["▁m","ad"],["▁ma","d"],["▁","nak"],["▁n","ak"],["▁na","k"],["▁","viet"],["▁v","iet"],["▁vi","et"],["▁vie","t"],["▁","mă"],["▁m","ă"],["▁l","ang"],["▁lan","g"],["i","esz"],["ie","sz"],["ies","z"],["▁","nis"],["▁n","is"],["▁ni","s"],["ó","ó"],["▁g","ad"],["▁ga","d"],["▁da","udz"],["▁p","ros"],["▁pr","os"],["▁pro","s"],["▁to","ho"],["▁toh","o"],["τ","ου"],["το","υ"],["▁z","g"],["▁","oper"],["▁o","per"],["▁op","er"],["▁o","len"],["▁ol","en"],["▁ole","n"],[",","-"],["l","av"],["la","v"],["▁z","at"],["▁za","t"],["▁p","õ"],["ъ","м"],["▁","ľ"],["ħ","seb"],["š","en"],["še","n"],["ки","х"],["▁","στα"],["▁σ","τα"],["▁b","est"],["▁be","st"],["▁bes","t"],["▁f","ant"],["▁tem","po"],["ġ","i"],["▁М","о"],["▁","hor"],["▁h","or"],["▁ho","r"],["▁","était"],["▁é","tait"],["▁ét","ait"],["▁tim","p"],["e","der"],["ed","er"],["ede","r"],["å","l"],["▁","stan"],["▁st","an"],["▁sta","n"],["▁and","ere"],["▁t","amb"],["▁tam","b"],["▁","zw"],["▁z","w"],["▁m","eta"],["▁me","ta"],["▁met","a"],["▁n","ije"],["▁ni","je"],["s","ég"],["k","ä"],["ν","ό"],["д","об"],["до","б"],["с","ъ"],["▁","È"],["д","ы"],["š","ie"],["ši","e"],["▁А","ле"],["▁my","ös"],["▁προ","σ"],["▁","ord"],["▁o","rd"],["▁or","d"],["▁sk","up"],["▁sku","p"],["a","ir"],["ai","r"],["bi","én"],["▁с","лед"],["▁сле","д"],["o","gu"],["og","u"],["▁p","ret"],["▁pr","et"],["▁pre","t"],["▁ac","est"],["▁ace","st"],["▁то","й"],["č","o"],["▁M","ed"],["▁Me","d"],["ur","n"],["▁N","i"],["en","ce"],["s","ter"],["st","er"],["ste","r"],["▁kie","net"],["▁kien","et"],["la","us"],["▁js","me"],["▁m","ano"],["▁ma","no"],["▁man","o"],["k","an"],["ka","n"],["k","em"],["ke","m"],["▁","Á"],["▁h","um"],["▁hu","m"],["▁","olla"],["▁ol","la"],["ί","ο"],["но","й"],["ко","м"],["▁viņ","i"],["▁G","r"],["▁k","ü"],["▁","dien"],["▁d","ien"],["▁di","en"],["▁die","n"],["▁о","сно"],["▁ос","но"],["▁tamb","ém"],["▁δ","ύ"],["▁v","še"],["▁vš","e"],["в","ро"],["▁c","sak"],["▁cs","ak"],["s","ob"],["so","b"],["▁ļ","oti"],["▁H","er"],["▁He","r"],["▁g","å"],["то","в"],["ú","ú"],["▁Z","a"],["▁d","esc"],["▁des","c"],["a","my"],["am","y"],["r","ob"],["ro","b"],["▁d","är"],["n","iej"],["ni","ej"],["nie","j"],["▁H","ij"],["▁Hi","j"],["▁ду","же"],["en","der"],["end","er"],["ende","r"],["a","je"],["aj","e"],["▁t","ij"],["▁ti","j"],["▁вре","ме"],["el","is"],["eli","s"],["▁so","ci"],["▁s","j"],["▁кой","то"],["k","é"],["▁M","or"],["▁Mo","r"],["▁ști","i"],["▁ha","ar"],["c","ol"],["co","l"],["▁a","pr"],["▁ap","r"],["ond","ol"],["k","onom"],["ko","nom"],["kon","om"],["би","ра"],["n","ingen"],["ning","en"],["σ","τη"],["▁","ans"],["▁a","ns"],["▁an","s"],["ul","la"],["ull","a"],["r","oj"],["ro","j"],["▁μπο","ρεί"],["t","ea"],["te","a"],["▁f","akt"],["▁fa","kt"],["▁fak","t"],["h","or"],["ho","r"],["a","zzjoni"],["azz","joni"],["ý","mi"],["ým","i"],["▁w","aren"],["▁wa","ren"],["▁war","en"],["r","ó"],["▁pri","mer"],["▁prim","er"],["▁prime","r"],["▁g","ali"],["▁ga","li"],["▁gal","i"],["▁en","erg"],["▁ener","g"],["μ","ή"],["▁е","сть"],["ра","з"],["▁s","õ"],["▁h","ur"],["▁hu","r"],["ī","s"],["r","ag"],["ra","g"],["üü","d"],["▁s","es"],["▁se","s"],["▁може","те"],["▁может","е"],["ę","s"],["▁T","ā"],["μέ","νο"],["μέν","ο"],["▁","ly"],["▁l","y"],["s","tav"],["st","av"],["sta","v"],["▁s","est"],["▁se","st"],["▁ses","t"],["▁v","ál"],["▁vá","l"],["▁O","b"],["u","sti"],["us","ti"],["ust","i"],["y","cz"],["αα","αα"],["▁o","ff"],["▁of","f"],["▁l","oro"],["▁lo","ro"],["▁lor","o"],["▁π","ρό"],["a","nud"],["an","ud"],["anu","d"],["i","era"],["ie","ra"],["ier","a"],["▁pr","oto"],["▁pro","to"],["▁prot","o"],["h","am"],["ha","m"],["le","y"],["▁p","rá"],["▁pr","á"],["▁ab","out"],["▁qu","esti"],["▁que","sti"],["e","kl"],["ek","l"],["▁v","am"],["▁va","m"],["p","port"],["pp","ort"],["ppo","rt"],["ν","ή"],["▁","ber"],["▁b","er"],["▁be","r"],["▁a","pie"],["▁ap","ie"],["▁m","oh"],["▁mo","h"],["ņ","em"],["м","я"],["▁ня","ко"],["▁ter","m"],["▁","пі"],["▁п","і"],["▁c","al"],["▁ca","l"],["▁sig","ni"],["▁sign","i"],["p","an"],["pa","n"],["в","ся"],["ни","ма"],["ним","а"],["▁бы","ло"],["▁был","о"],["o","di"],["od","i"],["n","ého"],["né","ho"],["▁t","odo"],["▁to","do"],["▁tod","o"],["j","el"],["je","l"],["▁h","ä"],["δ","ια"],["δι","α"],["en","g"],["с","тро"],["ст","ро"],["i","ß"],["ώ","ρα"],["▁o","sob"],["▁os","ob"],["á","st"],["ás","t"],["v","y"],["▁i","nim"],["▁in","im"],["▁me","ie"],["v","as"],["va","s"],["ħ","ra"],["▁Δ","εν"],["▁тако","ж"],["▁w","szyst"],["▁k","le"],["▁kl","e"],["▁Ma","ar"],["is","chen"],["isch","en"],["ische","n"],["ü","ck"],["▁го","вори"],["a","il"],["ai","l"],["c","ije"],["ci","je"],["cij","e"],["ка","та"],["is","esti"],["ise","sti"],["ises","ti"],["ø","d"],["a","tie"],["at","ie"],["ati","e"],["▁ol","yan"],["ρ","ία"],["ρί","α"],["ša","nas"],["šan","as"],["šana","s"],["к","т"],["▁v","erd"],["▁ve","rd"],["▁ver","d"],["b","es"],["be","s"],["ö","tt"],["öt","t"],["▁","fal"],["▁f","al"],["▁fa","l"],["▁","ça"],["▁f","amil"],["▁fam","il"],["▁p","oved"],["▁po","ved"],["▁pov","ed"],["▁pove","d"],["▁S","im"],["▁Si","m"],["▁","га"],["▁г","а"],["u","di"],["ud","i"],["γ","κ"],["▁B","ar"],["i","ksi"],["ik","si"],["iks","i"],["o","ug"],["ou","g"],["по","л"],["▁C","ol"],["▁Co","l"],["▁któ","ry"],["▁l","õ"],["o","tre"],["ot","re"],["▁p","ode"],["▁po","de"],["▁pod","e"],["á","ra"],["ár","a"],["▁B","u"],["▁J","is"],["▁ko","je"],["▁f","aire"],["▁fa","ire"],["г","ля"],["ва","ння"],["c","ed"],["ce","d"],["▁gr","and"],["▁gra","nd"],["▁gran","d"],["h","oz"],["ho","z"],["ж","ли"],["▁","oč"],["▁o","č"],["▁W","as"],["o","on"],["ö","rt"],["ör","t"],["▁e","so"],["▁es","o"],["▁con","f"],["▁В","и"],["▁p","ove"],["▁po","ve"],["▁pov","e"],["a","rio"],["ar","io"],["ari","o"],["▁n","agu"],["▁na","gu"],["▁cil","vē"],["▁h","j"],["l","ic"],["li","c"],["ч","і"],["▁","ці"],["▁ц","і"],["in","den"],["ind","en"],["inde","n"],["j","d"],["▁s","h"],["▁","igen"],["▁i","gen"],["▁ig","en"],["τ","ω"],["що","то"],["▁te","ch"],["▁e","h"],["▁P","ero"],["▁Pe","ro"],["▁Per","o"],["▁","tav"],["▁t","av"],["▁ta","v"],["▁h","vor"],["▁hv","or"],["g","g"],["▁ta","ké"],["▁tak","é"],["▁ab","s"],["▁которы","е"],["ž","u"],["z","ę"],["л","ся"],["▁k","op"],["▁ko","p"],["▁kön","nen"],["▁","miss"],["▁m","iss"],["▁mi","ss"],["▁mis","s"],["ш","у"],["j","ekt"],["je","kt"],["jek","t"],["▁πα","ρα"],["▁бу","ло"],["i","tos"],["it","os"],["ito","s"],["á","le"],["ál","e"],["a","be"],["ab","e"],["▁","пу"],["▁п","у"],["r","é"],["d","zi"],["dz","i"],["▁κα","θ"],["▁дру","ги"],["▁d","ak"],["▁da","k"],["▁n","ur"],["▁nu","r"],["▁L","o"],["▁","ye"],["▁y","e"],["▁j","ien"],["▁ji","en"],["▁jie","n"],["▁","ř"],["a","dy"],["ad","y"],["▁p","rim"],["▁pr","im"],["▁pri","m"],["i","ske"],["is","ke"],["isk","e"],["e","gu"],["eg","u"],["р","ів"],["рі","в"],["▁ne","ž"],["▁p","ier"],["▁pi","er"],["▁pie","r"],["▁v","air"],["▁va","ir"],["▁vai","r"],["έ","ν"],["▁О","н"],["i","eni"],["ie","ni"],["ien","i"],["▁r","est"],["▁re","st"],["▁res","t"],["d","om"],["do","m"],["▁","чо"],["▁ч","о"],["ș","ti"],["j","iet"],["ji","et"],["▁","ang"],["▁an","g"],["з","мо"],["▁A","ber"],["▁Ab","er"],["▁ко","гато"],["o","f"],["k","at"],["ka","t"],["▁а","бо"],["d","je"],["▁","él"],["▁é","l"],["ê","n"],["д","ей"],["де","й"],["▁m","ů"],["▁","пе"],["▁п","е"],["▁pr","eto"],["▁pre","to"],["▁pret","o"],["▁m","no"],["b","ie"],["bi","e"],["ž","ete"],["že","te"],["▁έ","χει"],["▁έχ","ει"],["k","ti"],["kt","i"],["k","så"],["ks","å"],["s","tä"],["st","ä"],["▁com","pr"],["▁comp","r"],["к","ри"],["a","ct"],["ac","t"],["▁r","ef"],["▁re","f"],["▁бу","в"],["▁h","abe"],["▁ha","be"],["▁hab","e"],["▁В","ін"],["▁w","urde"],["▁m","yslím"],["▁mysl","ím"],["a","res"],["ar","es"],["are","s"],["▁oc","kså"],["a","ties"],["at","ies"],["ati","es"],["atie","s"],["▁b","yl"],["▁by","l"],["▁p","it"],["▁pi","t"],["▁d","elle"],["▁del","le"],["▁dell","e"],["u","be"],["ub","e"],["ot","ta"],["ott","a"],["▁","ple"],["▁p","le"],["▁pl","e"],["▁w","ord"],["▁wo","rd"],["▁wor","d"],["▁","вам"],["▁ва","м"],["▁to","im"],["ț","ia"],["ți","a"],["▁mūs","u"],["u","no"],["un","o"],["▁fo","arte"],["▁","Θ"],["▁b","are"],["▁ba","re"],["▁bar","e"],["▁зна","ете"],["▁","ру"],["▁s","ão"],["▁s","var"],["▁sv","ar"],["f","ord"],["fo","rd"],["for","d"],["y","w"],["æ","l"],["o","dy"],["od","y"],["▁","être"],["ø","re"],["ør","e"],["u","res"],["ur","es"],["ure","s"],["j","ų"],["▁b","io"],["▁bi","o"],["▁","τε"],["▁τ","ε"],["▁s","po"],["▁sp","o"],["▁","rá"],["▁r","á"],["c","as"],["ca","s"],["▁den","ne"],["▁we","et"],["d","at"],["da","t"],["t","es"],["te","s"],["u","sa"],["us","a"],["▁în","t"],["ού","ν"],["▁m","ere"],["▁me","re"],["▁mer","e"],["▁mu","ut"],["ar","g"],["▁ε","υ"],["▁","now"],["▁n","ow"],["▁no","w"],["▁lab","ai"],["ö","v"],["i","ner"],["in","er"],["ine","r"],["j","ev"],["je","v"],["▁ei","nem"],["▁ein","em"],["▁eine","m"],["īb","ā"],["▁v","ă"],["▁","pel"],["▁p","el"],["▁pe","l"],["g","ra"],["gr","a"],["r","oz"],["ro","z"],["▁r","ów"],["▁t","we"],["▁tw","e"],["č","as"],["ča","s"],["▁","фи"],["▁ф","и"],["▁z","aj"],["▁za","j"],["l","iga"],["li","ga"],["lig","a"],["ди","те"],["▁","ham"],["▁h","am"],["▁ha","m"],["m","az"],["ma","z"],["n","olog"],["no","log"],["i","vel"],["iv","el"],["ive","l"],["o","ko"],["ok","o"],["πά","ρχ"],["▁","bin"],["▁b","in"],["▁bi","n"],["▁G","re"],["▁Gr","e"],["▁p","rac"],["▁pr","ac"],["▁pra","c"],["ov","ali"],["ova","li"],["oval","i"],["ur","g"],["▁S","h"],["ch","ter"],["cht","er"],["chte","r"],["n","ím"],["ní","m"],["s","tu"],["st","u"],["ро","в"],["▁В","о"],["▁do","bro"],["▁dob","ro"],["▁","onder"],["▁on","der"],["▁onde","r"],["▁organ","iz"],["z","na"],["zn","a"],["▁Qu","indi"],["s","it"],["si","t"],["▁v","se"],["a","ce"],["ac","e"],["▁s","yn"],["▁sy","n"],["▁sz","ám"],["▁t","ej"],["▁te","j"],["▁c","asa"],["▁ca","sa"],["▁cas","a"],["o","ved"],["ov","ed"],["ove","d"],["▁m","inden"],["▁min","den"],["▁mind","en"],["a","y"],["a","tu"],["at","u"],["▁","rob"],["▁r","ob"],["▁ro","b"],["▁de","ux"],["r","om"],["ro","m"],["▁s","ap"],["▁sa","p"],["ó","j"],["б","і"],["▁","pus"],["▁p","us"],["▁pu","s"],["▁wo","uld"],["с","ті"],["ст","і"],["▁al","go"],["▁alg","o"],["l","ap"],["la","p"],["▁f","ør"],["▁","ges"],["▁g","es"],["▁ge","s"],["▁d","ette"],["▁det","te"],["p","pen"],["pp","en"],["ppe","n"],["ia","usi"],["iau","si"],["iaus","i"],["▁","cri"],["▁c","ri"],["▁cr","i"],["r","iv"],["ri","v"],["▁то","зи"],["▁ї","х"],["▁va","ik"],["▁vai","k"],["▁c","ela"],["▁ce","la"],["▁cel","a"],["p","la"],["pl","a"],["▁c","red"],["▁cr","ed"],["▁cre","d"],["х","у"],["e","ssä"],["es","sä"],["ess","ä"],["in","tre"],["int","re"],["▁on","ze"],["o","sto"],["os","to"],["ost","o"],["▁f","ig"],["▁fi","g"],["▁No","us"],["γ","ά"],["▁дума","ю"],["n","as"],["na","s"],["▁w","ere"],["▁we","re"],["▁wer","e"],["i","că"],["ic","ă"],["s","sä"],["ss","ä"],["▁","Ό"],["i","di"],["id","i"],["l","ura"],["lu","ra"],["σ","ουν"],["▁dr","ug"],["▁dru","g"],["r","ee"],["re","e"],["▁ο","πο"],["то","м"],["ε","ται"],["▁st","ato"],["▁sta","to"],["▁stat","o"],["▁g","ondol"],["c","ji"],["▁t","wo"],["▁tw","o"],["ш","і"],["▁","sto"],["▁s","to"],["▁st","o"],["▁r","oku"],["▁ro","ku"],["▁rok","u"],["d","in"],["di","n"],["r","er"],["re","r"],["i","vät"],["iv","ät"],["at","ta"],["att","a"],["p","is"],["pi","s"],["▁F","l"],["▁и","ме"],["▁им","е"],["▁μπο","ρού"],["▁de","res"],["▁der","es"],["▁d","ell"],["▁de","ll"],["▁del","l"],["▁kun","nen"],["▁kunne","n"],["i","gi"],["ig","i"],["μ","αι"],["μα","ι"],["äl","lä"],["äll","ä"],["▁n","jih"],["▁nj","ih"],["де","ла"],["▁G","o"],["o","ria"],["or","ia"],["ori","a"],["▁f","ut"],["▁fu","t"],["a","bar"],["ab","ar"],["aba","r"],["▁v","isi"],["▁vi","si"],["▁vis","i"],["ъ","ъ"],["o","ta"],["ot","a"],["ț","in"],["ți","n"],["▁D","i"],["▁v","ill"],["▁vi","ll"],["▁vil","l"],["▁tagħ","hom"],["ļ","u"],["▁f","tit"],["▁M","utta"],["no","ści"],["i","jos"],["ij","os"],["ijo","s"],["▁p","esso"],["▁pes","so"],["ī","v"],["▁l","át"],["▁lá","t"],["▁di","ese"],["▁die","se"],["▁dies","e"],["ö","l"],["ž","í"],["ст","ве"],["▁od","p"],["▁p","ole"],["▁po","le"],["▁pol","e"],["φ","α"],["e","nia"],["en","ia"],["eni","a"],["▁E","in"],["▁Ei","n"],["▁hä","nen"],["▁hän","en"],["ak","se"],["aks","e"],["v","än"],["vä","n"],["▁","áll"],["▁á","ll"],["▁ál","l"],["ê","me"],["e","nas"],["en","as"],["ena","s"],["b","in"],["bi","n"],["▁O","s"],["▁th","ink"],["▁n","od"],["▁no","d"],["a","ry"],["ar","y"],["s","el"],["se","l"],["i","ons"],["io","ns"],["ion","s"],["▁d","ėl"],["b","at"],["ba","t"],["c","ze"],["cz","e"],["▁d","va"],["▁dv","a"],["▁su","ur"],["▁","oss"],["▁o","ss"],["▁os","s"],["▁pr","v"],["▁wh","ich"],["▁re","almente"],["▁real","mente"],["n","ú"],["bu","ie"],["▁ex","per"],["▁des","pre"],["ξ","η"],["▁k","it"],["▁ki","t"],["o","it"],["oi","t"],["w","s"],["ă","t"],["λ","ό"],["▁mūs","ų"],["▁Ta","igi"],["▁Tai","gi"],["▁","lim"],["▁l","im"],["▁li","m"],["▁s","an"],["▁sa","n"],["▁t","reb"],["▁tr","eb"],["▁tre","b"],["т","ер"],["те","р"],["r","ic"],["ri","c"],["▁М","а"],["h","el"],["he","l"],["ī","ba"],["īb","a"],["▁b","ý"],["▁Al","s"],["▁","esto"],["▁e","sto"],["▁es","to"],["▁est","o"],["p","as"],["pa","s"],["v","ait"],["va","it"],["▁g","ew"],["▁ge","w"],["ast","ă"],["▁","Ω"],["▁","uv"],["▁u","v"],["▁v","ám"],["▁vá","m"],["▁tiegħ","i"],["r","on"],["ro","n"],["▁и","ска"],["▁ис","ка"],["á","b"],["▁и","х"],["g","ram"],["gr","am"],["gra","m"],["▁na","ud"],["▁nau","d"],["▁spe","ci"],["▁z","av"],["▁za","v"],["▁t","ren"],["▁tr","en"],["▁tre","n"],["те","ль"],["тел","ь"],["i","ser"],["is","er"],["ise","r"],["▁mi","nut"],["▁min","ut"],["▁minu","t"],["κ","ι"],["▁e","iner"],["▁ei","ner"],["▁ein","er"],["▁eine","r"],["▁kõ","ik"],["▁","ци"],["▁ц","и"],["▁da","ž"],["▁с","ъм"],["▁съ","м"],["▁h","im"],["▁hi","m"],["▁m","emb"],["з","ы"],["c","in"],["ci","n"],["e","sen"],["es","en"],["ese","n"],["n","ega"],["ne","ga"],["o","ten"],["ot","en"],["ote","n"],["▁c","osa"],["▁co","sa"],["▁cos","a"],["δ","ώ"],["▁κα","τά"],["k","kor"],["kk","or"],["▁le","het"],["▁the","ir"],["i","tor"],["it","or"],["ito","r"],["▁hav","de"],["▁","pir"],["▁p","ir"],["▁pi","r"],["▁α","υ"],["с","тра"],["ст","ра"],["▁b","ine"],["▁bi","ne"],["▁bin","e"],["▁K","e"],["▁S","om"],["▁So","m"],["▁s","ano"],["▁sa","no"],["▁san","o"],["l","ia"],["li","a"],["▁t","ime"],["▁ti","me"],["▁tim","e"],["es","c"],["▁T","om"],["▁To","m"],["▁kä","yt"],["г","ла"],["▁","jau"],["▁j","au"],["▁ja","u"],["▁v","ás"],["▁vá","s"],["d","ar"],["da","r"],["▁b","ene"],["▁be","ne"],["▁ben","e"],["f","s"],["κ","ολ"],["κο","λ"],["▁vä","ga"],["h","em"],["he","m"],["▁","nego"],["▁n","ego"],["▁ne","go"],["▁neg","o"],["▁t","hem"],["▁th","em"],["▁the","m"],["▁t","ule"],["▁tu","le"],["▁tul","e"],["z","ik"],["zi","k"],["e","ter"],["et","er"],["ete","r"],["z","in"],["zi","n"],["▁ch","c"],["▁pal","ju"],["n","osť"],["nos","ť"],["a","ba"],["ab","a"],["i","rd"],["ir","d"],["n","ad"],["na","d"],["c","ej"],["ce","j"],["▁по","ве"],["▁пов","е"],["e","gi"],["eg","i"],["▁","ω"],["s","om"],["so","m"],["▁","ką"],["▁k","ą"],["▁me","er"],["▁","ден"],["▁д","ен"],["▁де","н"],["υ","σ"],["s","ké"],["sk","é"],["▁с","ме"],["r","ok"],["ro","k"],["ίν","ει"],["▁","uno"],["▁u","no"],["▁un","o"],["▁","wel"],["▁w","el"],["▁we","l"],["▁s","enti"],["▁sen","ti"],["▁sent","i"],["q","a"],["▁по","мо"],["▁jot","ka"],["ī","m"],["o","ol"],["▁lju","di"],["▁ljud","i"],["▁","ér"],["▁é","r"],["▁","lub"],["▁l","ub"],["▁lu","b"],["▁υ","πο"],["▁mu","ch"],["t","eri"],["te","ri"],["ter","i"],["▁","aug"],["▁a","ug"],["▁au","g"],["▁","ces"],["▁c","es"],["▁ce","s"],["o","ple"],["op","le"],["t","am"],["ta","m"],["l","ine"],["li","ne"],["lin","e"],["▁be","i"],["▁ge","en"],["да","т"],["un","do"],["und","o"],["▁n","az"],["▁na","z"],["ю","чи"],["▁","üks"],["▁ü","ks"],["▁","ж"],["t","ere"],["te","re"],["ter","e"],["▁","ри"],["er","na"],["ern","a"],["▁","sid"],["▁s","id"],["▁si","d"],["▁π","ρέπει"],["ш","ен"],["ше","н"],["▁э","ти"],["r","ing"],["rin","g"],["сто","я"],["▁","koll"],["▁k","oll"],["▁ko","ll"],["▁kol","l"],["▁pos","si"],["▁poss","i"],["▁prz","ez"],["▁prze","z"],["▁na","še"],["▁naš","e"],["i","sin"],["is","in"],["isi","n"],["▁m","ån"],["▁må","n"],["▁vl","ast"],["▁","amb"],["▁am","b"],["▁о","тно"],["▁от","но"],["f","ik"],["fi","k"],["▁","í"],["▁m","ég"],["▁mé","g"],["змо","жно"],["i","rt"],["ir","t"],["с","ет"],["се","т"],["▁","stru"],["▁st","ru"],["▁str","u"],["▁ti","po"],["▁tip","o"],["▁es","per"],["▁esp","er"],["▁espe","r"],["▁","μό"],["▁μ","ό"],["▁z","ou"],["▁zo","u"],["▁","сте"],["▁с","те"],["▁ст","е"],["▁То","й"],["▁","tit"],["▁t","it"],["▁ti","t"],["▁π","ρα"],["▁","тре"],["▁т","ре"],["▁Mis","lim"],["l","é"],["ö","k"],["it","tä"],["itt","ä"],["a","jí"],["aj","í"],["▁та","м"],["▁z","al"],["▁za","l"],["i","mal"],["im","al"],["ima","l"],["▁es","pe"],["▁esp","e"],["▁i","esp"],["▁ie","sp"],["ι","δ"],["з","е"],["p","ak"],["pa","k"],["a","vez"],["av","ez"],["ave","z"],["▁de","fin"],["a","pp"],["ap","p"],["▁d","og"],["▁do","g"],["▁P","e"],["o","wie"],["ow","ie"],["owi","e"],["▁M","on"],["▁Mo","n"],["▁K","as"],["▁Ka","s"],["▁","jel"],["▁j","el"],["▁je","l"],["▁к","ъм"],["л","но"],["▁о","д"],["▁h","vad"],["▁hv","ad"],["g","ov"],["go","v"],["i","sz"],["is","z"],["o","we"],["ow","e"],["▁лю","ди"],["ст","вен"],["стве","н"],["▁","ment"],["▁m","ent"],["▁men","t"],["▁pre","cis"],["ñ","o"],["▁sa","vu"],["▁sav","u"],["▁б","ъде"],["▁бъ","де"],["▁S","am"],["▁Sa","m"],["▁те","зи"],["▁sel","v"],["c","om"],["co","m"],["▁m","ay"],["▁ma","y"],["ar","na"],["▁ú","gy"],["uj","ú"],["ки","м"],["an","den"],["and","en"],["ande","n"],["▁Hu","wa"],["▁nagy","on"],["æ","t"],["▁K","ui"],["▁Ku","i"],["▁t","ista"],["▁ti","sta"],["▁tis","ta"],["▁P","ol"],["▁Po","l"],["▁Euro","pe"],["▁Europ","e"],["▁","вър"],["▁в","ър"],["▁въ","р"],["▁так","же"],["t","ag"],["ta","g"],["▁mu","y"],["н","г"],["i","sch"],["is","ch"],["ра","та"],["рат","а"],["▁s","ome"],["▁so","me"],["▁som","e"],["v","od"],["vo","d"],["i","bt"],["ib","t"],["p","us"],["pu","s"],["▁с","ло"],["▁P","od"],["▁Po","d"],["cion","al"],["λ","ει"],["λε","ι"],["▁","če"],["▁č","e"],["r","ast"],["ra","st"],["ras","t"],["че","нь"],["чен","ь"],["▁","red"],["▁r","ed"],["▁re","d"],["▁re","dz"],["▁red","z"],["▁ktor","ý"],["▁g","ot"],["▁go","t"],["▁m","itä"],["▁mi","tä"],["▁mit","ä"],["m","s"],["p","ă"],["i","jas"],["ij","as"],["ija","s"],["▁Ent","ão"],["▁co","mun"],["▁com","un"],["on","na"],["onn","a"],["▁i","hr"],["▁ih","r"],["пра","в"],["мен","т"],["al","ă"],["j","eb"],["je","b"],["▁","ils"],["▁il","s"],["▁я","кий"],["▁E","gy"],["▁tiegħ","ek"],["▁me","u"],["t","ev"],["te","v"],["▁D","es"],["▁De","s"],["μ","π"],["▁v","iel"],["▁vi","el"],["▁vie","l"],["▁c","ost"],["▁co","st"],["▁cos","t"],["▁rów","nie"],["r","ac"],["ra","c"],["к","ів"],["кі","в"],["▁vi","ņu"],["▁viņ","u"],["▁ku","rie"],["▁kur","ie"],["▁kuri","e"],["l","ič"],["li","č"],["▁M","u"],["▁","elő"],["▁el","ő"],["▁w","hen"],["▁wh","en"],["▁про","бле"],["ст","ви"],["▁te","raz"],["▁ter","az"],["▁O","l"],["л","ы"],["l","ab"],["la","b"],["či","ų"],["p","ress"],["pr","ess"],["pre","ss"],["pres","s"],["▁f","ran"],["▁fr","an"],["▁fra","n"],["▁","Щ"],["▁k","las"],["▁kl","as"],["ни","ето"],["ние","то"],["▁k","ons"],["▁ko","ns"],["▁kon","s"],["▁ac","este"],["▁ace","ste"],["▁acest","e"],["▁res","ult"],["▁","kri"],["▁k","ri"],["▁kr","i"],["▁s","ok"],["▁so","k"],["▁d","intre"],["▁din","tre"],["ę","p"],["▁kter","ý"],["ψ","η"],["▁k","de"],["▁a","in"],["▁ai","n"],["▁z","ag"],["▁za","g"],["б","но"],["l","ige"],["li","ge"],["lig","e"],["▁ne","i"],["▁n","och"],["▁no","ch"],["▁pop","ul"],["▁L","i"],["пи","та"],["▁J","ed"],["▁Je","d"],["▁tr","ès"],["▁го","ди"],["▁d","est"],["▁de","st"],["▁des","t"],["r","in"],["ri","n"],["▁w","ant"],["m","un"],["mu","n"],["a","vat"],["av","at"],["ava","t"],["▁l","īdz"],["▁","ember"],["▁em","ber"],["h","ux"],["hu","x"],["▁ha","cer"],["▁hac","er"],["▁pro","pri"],["▁prop","ri"],["q","ui"],["qu","i"],["▁O","m"],["▁Б","о"],["▁","ast"],["▁a","st"],["▁as","t"],["▁mis","lim"],["h","as"],["ha","s"],["r","ea"],["re","a"],["▁l","ok"],["▁lo","k"],["▁P","ot"],["▁Po","t"],["▁L","os"],["▁Lo","s"],["▁E","ste"],["▁Es","te"],["▁Est","e"],["▁","δε"],["▁δ","ε"],["▁di","fer"],["▁dif","er"],["▁aut","om"],["ė","t"],["▁","cir"],["▁c","ir"],["▁ci","r"],["▁no","get"],["▁nog","et"],["▁e","konom"],["a","dz"],["ad","z"],["y","y"],["c","iju"],["ci","ju"],["cij","u"],["▁cz","as"],["▁p","rot"],["▁pr","ot"],["▁pro","t"],["▁mom","ento"],["▁moment","o"],["л","ан"],["ла","н"],["▁","ră"],["▁r","ă"],["▁","τέ"],["▁τ","έ"],["ри","те"],["it","te"],["itt","e"],["▁","каза"],["▁ка","за"],["▁v","är"],["▁vä","r"],["би","ти"],["o","nes"],["on","es"],["one","s"],["▁V","al"],["▁Va","l"],["i","eren"],["ie","ren"],["ier","en"],["j","ák"],["k","tor"],["kt","or"],["▁do","en"],["▁е","сли"],["▁luc","ru"],["ά","ρ"],["ra","č"],["ó","ł"],["▁","jas"],["▁j","as"],["▁ja","s"],["іль","ки"],["x","i"],["p","oi"],["po","i"],["▁бу","ду"],["▁а","ко"],["▁tran","sp"],["▁trans","p"],["ці","ї"],["at","ur"],["atu","r"],["▁","дей"],["▁д","ей"],["▁де","й"],["▁do","ar"],["▁bardz","o"],["▁per","ché"],["χ","α"],["a","ux"],["au","x"],["▁f","ot"],["▁fo","t"],["ś","cie"],["ści","e"],["▁z","ur"],["▁zu","r"],["▁ме","не"],["▁мен","е"],["▁pot","reb"],["▁potre","b"],["▁z","ich"],["▁zi","ch"],["ig","h"],["▁p","ró"],["▁pr","ó"],["▁Y","ork"],["i","og"],["io","g"],["▁d","us"],["▁du","s"],["▁","liet"],["▁l","iet"],["▁li","et"],["▁lie","t"],["▁вси","чки"],["▁","nen"],["▁n","en"],["▁ne","n"],["▁fin","ns"],["▁j","eden"],["▁je","den"],["▁jed","en"],["▁m","ich"],["▁mi","ch"],["▁am","ikor"],["▁ami","kor"],["т","но"],["▁Та","ка"],["▁Так","а"],["▁p","osto"],["▁po","sto"],["▁pos","to"],["▁post","o"],["▁równie","ż"],["p","end"],["pe","nd"],["pen","d"],["▁cu","ando"],["▁","tir"],["▁t","ir"],["▁ti","r"],["g","in"],["gi","n"],["▁G","er"],["▁Ge","r"],["б","ра"],["j","es"],["je","s"],["▁st","ad"],["▁sta","d"],["▁s","ik"],["▁si","k"],["r","zy"],["rz","y"],["▁h","á"],["▁é","gal"],["▁p","es"],["▁pe","s"],["▁ser","v"],["u","z"],["us","ed"],["use","d"],["▁K","un"],["▁Ku","n"],["▁în","tre"],["▁înt","re"],["▁într","e"],["в","то"],["на","я"],["o","wać"],["owa","ć"],["w","ard"],["wa","rd"],["war","d"],["▁l","is"],["▁li","s"],["▁li","hts"],["δ","ή"],["▁","ami"],["▁a","mi"],["▁am","i"],["▁t","än"],["▁tä","n"],["▁h","ely"],["▁he","ly"],["▁hel","y"],["ad","or"],["ado","r"],["t","ais"],["ta","is"],["tai","s"],["▁","ons"],["▁o","ns"],["▁on","s"],["▁","она"],["▁о","на"],["▁он","а"],["l","asti"],["la","sti"],["las","ti"],["▁","quer"],["▁q","uer"],["▁qu","er"],["▁que","r"],["▁fa","zer"],["▁faz","er"],["х","ме"],["id","ades"],["ida","des"],["idad","es"],["idade","s"],["▁h","vis"],["▁hv","is"],["▁în","tr"],["▁înt","r"],["▁Ta","ip"],["▁Tai","p"],["▁in","ten"],["▁int","en"],["▁inte","n"],["d","et"],["de","t"],["σ","ία"],["a","ria"],["ar","ia"],["ari","a"],["▁p","irm"],["▁pir","m"],["▁в","она"],["▁во","на"],["m","os"],["mo","s"],["▁î","m"],["▁P","ok"],["▁Po","k"],["ξ","ει"],["ξε","ι"],["ní","ch"],["▁","ble"],["▁b","le"],["▁bl","e"],["▁","ī"],["▁рабо","та"],["к","ре"],["▁p","ast"],["▁pa","st"],["▁pas","t"],["ca","use"],["▁","Λ"],["я","то"],["ят","о"],["j","ali"],["ja","li"],["jal","i"],["▁D","on"],["▁Do","n"],["▁s","he"],["▁sh","e"],["u","er"],["ue","r"],["æ","nd"],["æn","d"],["ти","те"],["b","bli"],["bb","li"],["▁","jon"],["▁j","on"],["▁jo","n"],["▁","τό"],["▁τ","ό"],["on","der"],["ond","er"],["▁","vá"],["▁v","á"],["▁c","â"],["▁п","рез"],["▁пре","з"],["▁n","otre"],["▁no","tre"],["▁not","re"],["a","it"],["ai","t"],["ρ","ου"],["ρο","υ"],["д","ер"],["де","р"],["ro","bi"],["rob","i"],["▁inv","esti"],["▁invest","i"],["k","im"],["ki","m"],["ва","м"],["δ","η"],["▁","ċ"],["é","es"],["ée","s"],["ээ","ээ"],["▁ac","tu"],["▁re","ik"],["▁h","anno"],["▁han","no"],["a","bel"],["ab","el"],["abe","l"],["id","os"],["ido","s"],["q","uer"],["qu","er"],["que","r"],["▁v","äh"],["▁vä","h"],["▁о","бра"],["▁об","ра"],["▁pr","ote"],["▁pro","te"],["▁prot","e"],["▁égal","ement"],["π","η"],["▁","eng"],["▁en","g"],["▁g","öra"],["▁gör","a"],["▁Viņ","š"],["н","ен"],["не","н"],["▁","än"],["▁ä","n"],["▁proto","že"],["▁m","ik"],["▁mi","k"],["i","ly"],["il","y"],["e","stä"],["es","tä"],["est","ä"],["▁M","us"],["▁Mu","s"],["▁p","riv"],["▁pr","iv"],["▁pri","v"],["u","jí"],["uj","í"],["z","el"],["ze","l"],["▁p","rop"],["▁pr","op"],["▁pro","p"],["β","α"],["ät","kö"],["▁men","sen"],["▁mens","en"],["d","em"],["de","m"],["νο","μ"],["a","mes"],["am","es"],["ame","s"],["▁z","osta"],["▁zo","sta"],["EEEE","EEEE"],["▁dur","ante"],["a","o"],["▁ви","ко"],["▁li","ber"],["▁dom","āju"],["▁Я","к"],["g","es"],["ge","s"],["▁αυ","τή"],["▁αυτ","ή"],["á","sa"],["ás","a"],["▁ξ","έ"],["▁R","ob"],["▁Ro","b"],["▁ра","с"],["▁ме","ня"],["▁мен","я"],["п","і"],["n","it"],["ni","t"],["r","aj"],["ra","j"],["ро","ва"],["ров","а"],["▁","bro"],["▁b","ro"],["▁br","o"],["▁o","prav"],["▁op","rav"],["▁Д","о"],["▁T","am"],["▁Ta","m"],["▁","ela"],["▁e","la"],["▁el","a"],["▁k","aj"],["▁ka","j"],["▁word","t"],["v","r"],["▁t","ě"],["▁b","oli"],["▁bo","li"],["▁bol","i"],["▁","eg"],["▁e","g"],["ł","u"],["▁ї","ї"],["▁о","чень"],["v","ari"],["va","ri"],["var","i"],["▁p","av"],["▁pa","v"],["▁V","e"],["▁","vaj"],["▁v","aj"],["▁va","j"],["▁av","ons"],["et","zt"],["i","das"],["id","as"],["ida","s"],["▁","ты"],["▁т","ы"],["p","ec"],["pe","c"],["▁b","on"],["▁bo","n"],["▁j","agħ"],["▁ja","għ"],["▁jag","ħ"],["▁preto","že"],["▁е","дин"],["ί","ε"],["▁","рі"],["im","ento"],["iment","o"],["m","ă"],["t","ik"],["ti","k"],["ol","la"],["oll","a"],["▁K","at"],["▁Ka","t"],["▁","kre"],["▁k","re"],["▁kr","e"],["▁d","arb"],["▁dar","b"],["c","at"],["ca","t"],["▁Ο","ι"],["▁be","en"],["ł","e"],["▁Vo","cê"],["▁tö","bb"],["▁П","ро"],["an","ta"],["ant","a"],["f","att"],["fa","tt"],["▁bý","t"],["k","oz"],["ko","z"],["ωω","ωω"],["▁N","ä"],["▁","cen"],["▁c","en"],["▁ce","n"],["f","ica"],["fi","ca"],["fic","a"],["▁та","зи"],["us","es"],["use","s"],["▁zin","iet"],["an","za"],["anz","a"],["ai","ent"],["a","ren"],["ar","en"],["are","n"],["e","lik"],["el","ik"],["eli","k"],["▁for","ts"],["▁fort","s"],["▁Α","υτό"],["▁n","ás"],["▁ná","s"],["▁p","ää"],["▁pä","ä"],["▁a","kkor"],["▁ak","kor"],["š","to"],["št","o"],["▁s","abe"],["▁sa","be"],["▁sab","e"],["▁","pär"],["▁p","är"],["▁pä","r"],["▁ko","ska"],["▁kos","ka"],["ни","ка"],["ник","а"],["▁me","hr"],["▁не","го"],["г","ле"],["aj","te"],["ajt","e"],["▁","rem"],["▁r","em"],["▁re","m"],["▁як","що"],["▁strat","eg"],["e","ksi"],["ek","si"],["eks","i"],["▁","lik"],["▁l","ik"],["▁li","k"],["vo","ir"],["▁pr","ima"],["▁pri","ma"],["▁prim","a"],["f","on"],["fo","n"],["▁bū","ti"],["▁būt","i"],["▁e","ven"],["▁ev","en"],["▁živ","ot"],["▁ma","ž"],["▁pe","ople"],["τ","ρο"],["▁R","eg"],["▁Re","g"],["▁","għa"],["▁g","ħa"],["▁għ","a"],["ö","m"],["▁C","hr"],["▁Ch","r"],["▁πρα","γμα"],["▁K","ai"],["▁Ka","i"],["▁t","ú"],["a","ste"],["as","te"],["ast","e"],["▁про","и"],["k","ay"],["ka","y"],["▁","kod"],["▁k","od"],["▁ko","d"],["▁","lag"],["▁l","ag"],["▁la","g"],["▁t","ega"],["▁te","ga"],["▁teg","a"],["▁nek","aj"],["▁J","ak"],["▁Ja","k"],["▁","dzie"],["▁d","zie"],["▁dz","ie"],["▁dzi","e"],["▁","hekk"],["▁h","ekk"],["▁he","kk"],["▁T","en"],["▁Te","n"],["▁c","it"],["▁ci","t"],["r","ă"],["ē","ju"],["ēj","u"],["▁V","a"],["š","im"],["ši","m"],["▁c","ur"],["▁cu","r"],["▁w","ho"],["▁wh","o"],["ā","l"],["▁po","dob"],["▁pod","ob"],["▁Singap","ur"],["▁Singap","ore"],["▁s","li"],["▁sl","i"],["▁cons","ider"],["ł","ad"],["ła","d"],["▁c","ui"],["▁cu","i"],["▁","pis"],["▁p","is"],["▁pi","s"],["▁a","mer"],["▁am","er"],["▁","essa"],["▁es","sa"],["▁ess","a"],["▁ko","ja"],["▁w","erd"],["▁we","rd"],["▁wer","d"],["ко","й"],["▁","mä"],["▁m","ä"],["▁Р","а"],["▁Euro","pa"],["▁Europ","a"],["▁s","ud"],["▁su","d"],["λ","ώ"],["σ","αν"],["σα","ν"],["▁г","ру"],["▁wię","c"],["k","ie"],["ki","e"],["st","vo"],["▁ver","sch"],["▁vers","ch"],["it","an"],["ita","n"],["▁ki","enu"],["▁kie","nu"],["▁kien","u"],["ни","ми"],["ним","и"],["▁ко","ято"],["m","est"],["me","st"],["mes","t"],["m","ed"],["me","d"],["▁m","alo"],["▁ma","lo"],["▁mal","o"],["▁υ","πάρχ"],["▁vra","iment"],["a","len"],["al","en"],["ale","n"],["▁","aux"],["▁a","ux"],["▁au","x"],["k","ow"],["ko","w"],["▁м","не"],["▁import","ante"],["▁important","e"],["ι","κο"],["ικ","ο"],["▁d","if"],["▁di","f"],["▁с","дела"],["y","a"],["l","iv"],["li","v"],["▁al","c"],["▁s","uo"],["▁su","o"],["▁f","unk"],["▁fun","k"],["▁h","ere"],["▁he","re"],["▁her","e"],["▁d","etta"],["▁det","ta"],["r","ik"],["ri","k"],["σ","ετε"],["σε","τε"],["é","c"],["ό","ν"],["те","ли"],["тел","и"],["▁f","av"],["▁fa","v"],["t","ige"],["ti","ge"],["tig","e"],["▁","jen"],["▁j","en"],["▁je","n"],["▁s","ek"],["▁se","k"],["▁d","im"],["▁di","m"],["▁до","ста"],["ju","č"],["▁t","iem"],["▁ti","em"],["▁tie","m"],["σ","σ"],["▁s","ent"],["▁sen","t"],["▁v","isu"],["▁vi","su"],["▁vis","u"],["▁h","v"],["▁c","l"],["c","ord"],["co","rd"],["▁ol","eks"],["▁ole","ks"],["▁m","ár"],["▁má","r"],["γ","ή"],["im","me"],["▁ace","astă"],["u","le"],["ul","e"],["υ","να"],["▁c","ele"],["▁ce","le"],["▁cel","e"],["▁a","pro"],["▁ap","ro"],["▁apr","o"],["▁","¡"],["e","sa"],["es","a"],["м","ан"],["ма","н"],["г","і"],["▁d","isk"],["▁di","sk"],["▁dis","k"],["▁ό","ταν"],["▁","άν"],["▁ά","ν"],["▁su","c"],["▁","use"],["▁u","se"],["▁us","e"],["▁ž","m"],["▁jed","n"],["▁n","ella"],["▁nel","la"],["c","il"],["ci","l"],["▁","-"],["κ","αν"],["κα","ν"],["el","or"],["elo","r"],["▁ex","c"],["▁s","vet"],["▁sv","et"],["▁sve","t"],["▁sim","pl"],["χ","ή"],["▁δύ","ο"],["▁ven","dar"],["▁vend","ar"],["до","в"],["▁","δη"],["▁δ","η"],["▁","dzi"],["▁d","zi"],["▁dz","i"],["▁don","c"],["▁k","ult"],["▁ku","lt"],["▁kul","t"],["n","ut"],["nu","t"],["á","me"],["ám","e"],["▁и","м"],["▁b","ħ"],["▁","над"],["▁на","д"],["S","A"],["π","ί"],["r","im"],["ri","m"],["▁","arm"],["▁ar","m"],["▁К","ак"],["▁Ка","к"],["▁vair","āk"],["▁","Ú"],["o","ts"],["ot","s"],["▁","φο"],["▁φ","ο"],["dz","iał"],["▁ku","ul"],["▁kans","sa"],["i","ert"],["ie","rt"],["ier","t"],["τ","ρα"],["min","ist"],["o","per"],["op","er"],["▁","ves"],["▁v","es"],["▁ve","s"],["▁m","odo"],["▁mo","do"],["▁mod","o"],["▁t","kun"],["▁по","ка"],["в","ор"],["во","р"],["но","м"],["in","ge"],["ing","e"],["▁","ann"],["▁an","n"],["▁aș","a"],["▁n","au"],["▁na","u"],["▁rez","ult"],["▁b","ūt"],["▁bū","t"],["▁","lev"],["▁l","ev"],["▁le","v"],["is","sen"],["iss","en"],["isse","n"],["a","pt"],["ap","t"],["▁vi","še"],["μ","ι"],["▁бы","ть"],["ó","k"],["▁i","żda"],["▁iż","da"],["ż","e"],["ī","ja"],["īj","a"],["▁Α","λλά"],["l","ub"],["lu","b"],["▁","ya"],["▁y","a"],["▁","hos"],["▁h","os"],["▁ho","s"],["▁","них"],["▁ни","х"],["ist","as"],["ista","s"],["ó","t"],["f","ol"],["fo","l"],["▁","κο"],["▁κ","ο"],["▁ľ","ud"],["ên","cia"],["▁д","обре"],["▁доб","ре"],["u","ts"],["ut","s"],["▁J","ah"],["▁Ja","h"],["▁E","d"],["▁su","is"],["č","nosti"],["čno","sti"],["čnost","i"],["ча","й"],["u","ter"],["ut","er"],["ute","r"],["▁by","ť"],["▁T","ämä"],["▁veľ","mi"],["o","ž"],["▁K","an"],["▁Ka","n"],["▁","elle"],["▁el","le"],["▁si","itä"],["ци","а"],["au","c"],["▁t","oh"],["▁to","h"],["▁d","éc"],["▁dé","c"],["▁se","i"],["▁ħa","ġa"],["▁че","рез"],["is","m"],["▁","ev"],["▁e","v"],["▁","ži"],["▁ž","i"],["▁","kus"],["▁k","us"],["▁ku","s"],["b","agħ"],["ba","għ"],["▁v","år"],["▁vå","r"],["▁n","ich"],["▁ni","ch"],["▁ec","onom"],["a","tes"],["at","es"],["ate","s"],["▁d","oc"],["▁do","c"],["▁g","ör"],["▁t","art"],["▁ta","rt"],["▁tar","t"],["▁","ust"],["▁u","st"],["▁us","t"],["▁vien","kār"],["▁a","mit"],["▁am","it"],["▁ami","t"],["▁буде","т"],["▁tam","bién"],["r","or"],["ro","r"],["р","та"],["рт","а"],["a","a"],["к","ого"],["ко","го"],["▁T","od"],["▁To","d"],["▁T","ur"],["▁Tu","r"],["▁by","ł"],["▁j","äl"],["▁jä","l"],["▁на","м"],["▁ве","ли"],["q","s"],["ö","g"],["▁tre","buie"],["▁trebui","e"],["▁t","in"],["▁ti","n"],["▁ό","πω"],["e","ring"],["er","ing"],["р","ти"],["рт","и"],["▁p","am"],["▁pa","m"],["▁στο","ν"],["r","ab"],["ra","b"],["▁š","o"],["▁t","at"],["▁ta","t"],["▁gos","pod"],["сти","на"],["▁I","h"],["▁N","ão"],["φ","ή"],["á","ch"],["ж","на"],["▁D","ak"],["▁Da","k"],["▁d","re"],["▁dr","e"],["▁m","ogu"],["▁mo","gu"],["▁mog","u"],["ά","ζ"],["▁","rod"],["▁r","od"],["▁ro","d"],["▁koll","ha"],["š","n"],["▁v","ec"],["▁ve","c"],["▁ka","žd"],["▁kaž","d"],["▁d","essa"],["▁des","sa"],["▁dess","a"],["u","ró"],["ur","ó"],["w","as"],["wa","s"],["e","lij"],["el","ij"],["eli","j"],["▁b","ili"],["▁bi","li"],["▁bil","i"],["▁se","hr"],["ut","at"],["uta","t"],["l","ej"],["le","j"],["▁σ","ύ"],["▁J","os"],["▁Jo","s"],["▁b","it"],["▁bi","t"],["ř","i"],["el","les"],["ell","es"],["elle","s"],["p","ol"],["po","l"],["▁s","na"],["▁sn","a"],["is","ed"],["ise","d"],["▁Vo","us"],["▁με","τα"],["▁probl","ema"],["▁problem","a"],["▁and","ra"],["▁b","un"],["▁bu","n"],["st","and"],["sta","nd"],["stan","d"],["▁h","elt"],["▁he","lt"],["▁hel","t"],["▁con","stru"],["▁const","ru"],["▁lihts","alt"],["▁","log"],["▁l","og"],["▁lo","g"],["▁f","rem"],["▁fr","em"],["▁fre","m"],["p","lo"],["pl","o"],["▁ho","e"],["▁in","to"],["▁int","o"],["▁","Ü"],["▁α","κ"],["k","te"],["kt","e"],["▁","uk"],["▁u","k"],["j","au"],["ja","u"],["▁C","e"],["▁","nyt"],["▁n","yt"],["▁ny","t"],["▁π","ιο"],["▁ve","ry"],["▁ver","y"],["▁ц","ього"],["e","x"],["▁s","oll"],["▁so","ll"],["▁sol","l"],["▁go","ing"],["▁sem","pli"],["äm","än"],["ämä","n"],["▁","lep"],["▁l","ep"],["▁le","p"],["▁ε","δώ"],["▁vä","lja"],["▁väl","ja"],["s","in"],["si","n"],["т","ен"],["те","н"],["▁g","am"],["▁ga","m"],["▁З","на"],["▁p","rem"],["▁pr","em"],["▁pre","m"],["▁szer","et"],["é","st"],["és","t"],["на","д"],["u","mus"],["um","us"],["umu","s"],["▁g","år"],["▁gå","r"],["▁j","og"],["▁jo","g"],["▁","ді"],["▁д","і"],["▁v","ys"],["▁vy","s"],["a","ră"],["ar","ă"],["ñ","os"],["ño","s"],["j","am"],["ja","m"],["z","ni"],["zn","i"],["in","ė"],["▁","ing"],["▁in","g"],["▁De","ci"],["▁pe","ut"],["▁peu","t"],["▁P","h"],["e","stu"],["es","tu"],["est","u"],["▁mo","et"],["σ","τα"],["▁O","r"],["▁p","reg"],["▁pr","eg"],["▁pre","g"],["▁М","ы"],["o","bil"],["ob","il"],["ț","ion"],["ți","on"],["▁за","по"],["н","ій"],["ні","й"],["▁M","y"],["▁p","rez"],["▁pr","ez"],["▁pre","z"],["▁f","år"],["▁få","r"],["▁о","со"],["▁ос","о"],["▁p","oten"],["▁po","ten"],["▁pot","en"],["ħ","ed"],["▁С","е"],["▁m","ok"],["▁mo","k"],["i","vi"],["iv","i"],["p","ie"],["pi","e"],["i","set"],["is","et"],["ise","t"],["▁t","äh"],["▁tä","h"],["з","і"],["▁si","in"],["▁о","дин"],["▁од","ин"],["ну","ю"],["għ","id"],["▁M","ēs"],["▁tik","ai"],["▁tika","i"],["▁","Ш"],["r","au"],["ra","u"],["з","да"],["к","то"],["кт","о"],["▁Εί","ναι"],["e","mi"],["em","i"],["e","rea"],["er","ea"],["ere","a"],["▁K","ar"],["▁Ka","r"],["▁σ","τι"],["▁","вер"],["▁в","ер"],["▁ве","р"],["▁","Å"],["än","g"],["ų","jų"],["m","ien"],["mi","en"],["▁mo","je"],["▁moj","e"],["т","ів"],["ті","в"],["▁ar","v"],["▁un","ter"],["▁d","ue"],["▁du","e"],["▁t","el"],["▁te","l"],["▁m","ani"],["▁ma","ni"],["▁man","i"],["ī","gs"],["īg","s"],["ла","го"],["▁","дела"],["▁де","ла"],["▁t","anto"],["▁tan","to"],["▁tant","o"],["▁o","tr"],["▁ot","r"],["▁w","il"],["▁wi","l"],["▁inte","ress"],["▁inter","ess"],["▁interes","s"],["▁e","hm"],["▁eh","m"],["c","ker"],["ck","er"],["d","s"],["f","ul"],["fu","l"],["▁d","eb"],["▁de","b"],["un","gs"],["ung","s"],["▁ση","μα"],["z","za"],["zz","a"],["γ","ρα"],["▁","μη"],["▁μ","η"],["as","zt"],["asz","t"],["os","sa"],["oss","a"],["▁f","ond"],["▁fo","nd"],["p","in"],["pi","n"],["▁m","are"],["▁ma","re"],["▁mar","e"],["▁må","ste"],["τ","ώ"],["▁","ги"],["▁г","и"],["▁C","har"],["▁Ch","ar"],["f","ü"],["u","ž"],["u","ră"],["ur","ă"],["at","ti"],["att","i"],["j","eme"],["je","me"],["jem","e"],["▁n","agħ"],["▁na","għ"],["▁gr","und"],["▁gru","nd"],["▁d","ô"],["▁as","í"],["▁dis","c"],["▁ком","па"],["í","an"],["ía","n"],["▁ha","wn"],["▁dur","ch"],["▁un","ivers"],["▁uni","vers"],["▁","ry"],["▁r","y"],["▁A","ko"],["▁Ak","o"],["▁B","ro"],["▁Br","o"],["▁t","hen"],["▁th","en"],["▁the","n"],["▁we","iß"],["bagħ","ad"],["▁f","ă"],["▁tak","že"],["▁pol","iti"],["▁polit","i"],["▁val","ó"],["o","are"],["▁es","tava"],["▁est","ava"],["▁esta","va"],["r","ak"],["ra","k"],["▁T","u"],["ż","i"],["h","men"],["hm","en"],["▁inte","res"],["▁inter","es"],["▁","ket"],["▁k","et"],["▁ke","t"],["▁m","ell"],["▁me","ll"],["▁mel","l"],["o","ry"],["or","y"],["r","um"],["ru","m"],["▁m","inu"],["▁mi","nu"],["▁min","u"],["▁","ef"],["▁e","f"],["f","u"],["k","la"],["kl","a"],["▁","ло"],["▁reg","ul"],["▁","its"],["▁i","ts"],["▁it","s"],["ø","l"],["ś","l"],["è","me"],["▁ú","j"],["ini","ų"],["▁p","owie"],["▁po","wie"],["▁pow","ie"],["▁","rag"],["▁r","ag"],["▁ra","g"],["▁хо","ро"],["▁pal","jon"],["▁ties","iog"],["he","it"],["▁vel","iko"],["▁velik","o"],["a","pe"],["ap","e"],["h","and"],["ha","nd"],["han","d"],["▁al","les"],["▁all","es"],["▁alle","s"],["▁лю","дей"],["▁M","ad"],["▁Ma","d"],["▁π","ρά"],["▁vše","ch"],["miss","ion"],["a","du"],["ad","u"],["▁F","il"],["▁","mun"],["▁m","un"],["▁mu","n"],["▁M","c"],["a","ff"],["af","f"],["▁","rom"],["▁r","om"],["▁ro","m"],["at","ori"],["ato","ri"],["ator","i"],["λ","ω"],["o","den"],["od","en"],["ode","n"],["▁Á","no"],["▁no","ast"],["a","vi"],["av","i"],["▁k","art"],["▁ka","rt"],["▁kar","t"],["ci","as"],["cia","s"],["▁b","ör"],["▁v","ri"],["▁vr","i"],["á","ní"],["án","í"],["it","ud"],["itu","d"],["o","nte"],["on","te"],["ont","e"],["é","ben"],["▁","ren"],["▁r","en"],["▁re","n"],["▁ча","с"],["▁M","iss"],["▁Mi","ss"],["▁Mis","s"],["▁f","ram"],["▁fr","am"],["▁fra","m"],["du","c"],["▁v","ak"],["▁va","k"],["i","ente"],["ie","nte"],["ien","te"],["▁επί","ση"],["d","ę"],["д","ъл"],["▁t","rab"],["▁tr","ab"],["▁tra","b"],["a","lu"],["al","u"],["ти","в"],["▁","ří"],["▁ř","í"],["t","ure"],["tu","re"],["▁T","ag"],["▁Ta","g"],["г","на"],["▁p","rov"],["▁pr","ov"],["▁pro","v"],["▁enc","ont"],["ó","g"],["el","ő"],["l","ja"],["lj","a"],["in","ta"],["int","a"],["ον","ται"],["▁g","ibt"],["▁gi","bt"],["▁s","itä"],["▁si","tä"],["▁sit","ä"],["▁f","re"],["▁fr","e"],["λ","ύτε"],["▁s","is"],["▁si","s"],["▁st","vari"],["▁stvar","i"],["å","t"],["r","ess"],["re","ss"],["res","s"],["p","per"],["pp","er"],["ppe","r"],["▁V","ai"],["▁Va","i"],["▁s","pus"],["▁sp","us"],["▁v","otre"],["▁vo","tre"],["▁kaik","ki"],["н","ю"],["š","anu"],["ša","nu"],["šan","u"],["š","li"],["▁lu","gar"],["▁lug","ar"],["▁C","u"],["вро","пе"],["▁s","por"],["▁sp","or"],["▁spo","r"],["ân","ă"],["▁съ","що"],["d","ev"],["de","v"],["▁","ισ"],["▁bū","tu"],["▁būt","u"],["▁cos","ì"],["▁pen","se"],["▁pens","e"],["▁qu","esta"],["▁que","sta"],["i","son"],["is","on"],["ла","га"],["▁","rze"],["▁r","ze"],["▁","πό"],["▁π","ό"],["an","ge"],["ang","e"],["t","ima"],["ti","ma"],["tim","a"],["▁","vert"],["▁v","ert"],["▁ve","rt"],["▁ver","t"],["o","mis"],["om","is"],["omi","s"],["▁π","άν"],["▁πά","ν"],["▁c","res"],["▁cr","es"],["▁cre","s"],["št","ě"],["▁","ξε"],["▁ξ","ε"],["z","ien"],["zi","en"],["zie","n"],["▁t","yl"],["▁ty","l"],["▁u","por"],["▁up","or"],["▁ind","ust"],["o","h"],["n","ov"],["no","v"],["w","ij"],["wi","j"],["▁бы","ли"],["▁был","и"],["▁kun","ne"],["ле","е"],["▁","гла"],["▁г","ла"],["w","el"],["we","l"],["ц","ен"],["це","н"],["▁","át"],["▁á","t"],["c","ijas"],["ci","jas"],["cij","as"],["cija","s"],["не","с"],["k","ą"],["r","ait"],["ra","it"],["rai","t"],["р","но"],["▁ne","ces"],["▁p","ed"],["▁pe","d"],["▁d","ann"],["▁dan","n"],["▁m","ert"],["▁me","rt"],["▁mer","t"],["▁v","ida"],["▁vi","da"],["▁vid","a"],["▁sit","ua"],["▁situ","a"],["▁sem","pre"],["▁ab","biamo"],["с","ле"],["n","ies"],["ni","es"],["nie","s"],["▁by","ć"],["▁j","ego"],["▁je","go"],["▁jeg","o"],["▁ме","ні"],["▁мен","і"],["a","w"],["▁iz","m"],["▁","gel"],["▁g","el"],["▁ge","l"],["ņ","u"],["c","ir"],["ci","r"],["▁M","al"],["▁Ma","l"],["▁","ί"],["s","id"],["si","d"],["ча","т"],["▁fö","rs"],["▁för","s"],["▁abs","ol"],["▁dru","gi"],["▁drug","i"],["▁pr","oti"],["▁pro","ti"],["▁prot","i"],["▁Х","о"],["▁ба","гато"],["č","a"],["▁e","ver"],["▁ev","er"],["▁о","три"],["▁от","ри"],["ten","ant"],["▁h","atte"],["▁hat","te"],["▁","hy"],["▁h","y"],["▁i","hm"],["▁ih","m"],["▁p","ia"],["▁pi","a"],["▁в","сі"],["▁J","ien"],["▁Jie","n"],["h","os"],["ho","s"],["at","te"],["att","e"],["▁","any"],["▁a","ny"],["▁an","y"],["▁m","hux"],["k","lich"],["kl","ich"],["kli","ch"],["▁e","igen"],["▁ei","gen"],["▁P","u"],["▁","vod"],["▁v","od"],["▁vo","d"],["▁с","ві"],["▁tr","ava"],["▁tra","va"],["▁trav","a"],["u","ją"],["uj","ą"],["in","st"],["ins","t"],["▁tra","bal"],["▁trab","al"],["d","as"],["da","s"],["▁s","ia"],["▁si","a"],["w","ay"],["wa","y"],["ло","ви"],["ov","ání"],["ová","ní"],["▁l","ast"],["▁la","st"],["▁las","t"],["▁бу","ти"],["мен","та"],["мент","а"],["ita","tea"],["itate","a"],["▁pers","one"],["▁person","e"],["o","pa"],["op","a"],["▁K","on"],["▁Ko","n"],["en","ter"],["ent","er"],["ente","r"],["ко","но"],["кон","о"],["▁le","ur"],["▁ne","ch"],["f","ri"],["fr","i"],["▁","бя"],["▁б","я"],["▁","цен"],["▁ц","ен"],["▁це","н"],["▁bħ","ala"],["▁bħal","a"],["▁s","avez"],["▁sa","vez"],["▁sav","ez"],["▁re","ally"],["▁real","ly"],["i","x"],["▁","ál"],["▁á","l"],["y","je"],["j","ich"],["ji","ch"],["θη","κε"],["▁je","i"],["▁те","х"],["▁K","omis"],["▁Ko","mis"],["▁Kom","is"],["ε","ρ"],["e","tr"],["et","r"],["▁m","ême"],["o","tu"],["ot","u"],["ж","ду"],["▁","лі"],["▁N","ad"],["▁Na","d"],["▁в","клю"],["▁kon","kur"],["п","ла"],["че","ние"],["í","r"],["o","rit"],["or","it"],["ori","t"],["▁pesso","as"],["θ","ή"],["an","z"],["t","il"],["ti","l"],["u","mas"],["um","as"],["uma","s"],["▁mer","c"],["▁st","var"],["▁пове","че"],["λ","ου"],["λο","υ"],["ва","в"],["▁и","спо"],["▁ис","по"],["ν","ά"],["b","et"],["be","t"],["▁s","aid"],["▁sa","id"],["▁sai","d"],["ľ","a"],["n","ým"],["ný","m"],["o","ku"],["ok","u"],["▁","χα"],["▁χ","α"],["▁s","ü"],["a","ron"],["ar","on"],["ç","o"],["▁","cul"],["▁c","ul"],["▁cu","l"],["um","iem"],["umi","em"],["▁ch","ose"],["▁cho","se"],["▁by","lo"],["▁byl","o"],["p","id"],["pi","d"],["▁","té"],["▁t","é"],["▁b","iss"],["▁bi","ss"],["▁bis","s"],["▁σ","κ"],["▁","зо"],["▁з","о"],["▁im","ma"],["▁imm","a"],["▁не","що"],["▁a","vait"],["▁av","ait"],["▁пред","ста"],["er","son"],["ers","on"],["▁st","abil"],["▁sta","bil"],["d","al"],["da","l"],["a","tive"],["at","ive"],["ati","ve"],["ativ","e"],["▁u","č"],["▁ke","sk"],["▁kes","k"],["ц","ю"],["ü","h"],["▁","ért"],["▁é","rt"],["▁ér","t"],["▁c","ond"],["▁co","nd"],["▁con","d"],["▁den","k"],["l","á"],["▁k","is"],["▁ki","s"],["▁s","wo"],["▁sw","o"],["▁b","olo"],["▁bo","lo"],["▁bol","o"],["▁te","ad"],["▁mo","eten"],["▁moet","en"],["ó","r"],["p","pe"],["pp","e"],["▁","anti"],["▁an","ti"],["▁ant","i"],["j","ut"],["ju","t"],["▁е","е"],["σσ","ότε"],["▁Ge","or"],["▁εί","χε"],["▁ent","ão"],["▁περι","σσότε"],["u","li"],["ul","i"],["▁L","as"],["▁La","s"],["▁N","or"],["▁No","r"],["g","ende"],["gen","de"],["▁s","pos"],["▁sp","os"],["▁spo","s"],["w","k"],["f","ach"],["fa","ch"],["v","ero"],["ve","ro"],["ver","o"],["n","yt"],["ny","t"],["▁t","ou"],["▁to","u"],["▁bū","tų"],["▁būt","ų"],["ć","a"],["um","ā"],["á","lt"],["ál","t"],["in","da"],["ind","a"],["▁h","ele"],["▁he","le"],["▁hel","e"],["▁I","z"],["▁за","щото"],["▁part","ner"],["yl","lä"],["▁d","ez"],["▁de","z"],["▁n","uo"],["▁nu","o"],["▁w","ür"],["▁s","igur"],["▁sig","ur"],["▁Č","e"],["i","cht"],["ic","ht"],["ich","t"],["пи","са"],["▁j","ist"],["▁ji","st"],["▁jis","t"],["ť","a"],["ρ","ια"],["ρι","α"],["ли","я"],["▁tö","ö"],["▁a","sem"],["▁as","em"],["▁e","cht"],["▁ec","ht"],["▁ex","emp"],["i","nud"],["in","ud"],["inu","d"],["r","avo"],["ra","vo"],["rav","o"],["▁g","la"],["▁gl","a"],["▁v","ég"],["n","ed"],["ne","d"],["am","il"],["ami","l"],["▁mo","że"],["▁moż","e"],["▁бу","ли"],["▁th","ese"],["▁the","se"],["ď","al"],["ie","waż"],["▁b","ase"],["▁ba","se"],["▁bas","e"],["▁f","are"],["▁fa","re"],["▁far","e"],["▁mul","te"],["▁mult","e"],["г","ли"],["▁д","ве"],["▁p","oss"],["▁po","ss"],["▁pos","s"],["r","ez"],["re","z"],["ши","х"],["▁D","av"],["▁Da","v"],["▁k","ör"],["▁kö","r"],["▁pe","u"],["n","ika"],["ni","ka"],["nik","a"],["▁I","va"],["▁r","un"],["▁ru","n"],["▁pr","ime"],["▁pri","me"],["▁prim","e"],["▁vienkār","ši"],["ļ","a"],["▁","Ä"],["a","ig"],["ai","g"],["▁","lé"],["▁l","é"],["a","ger"],["ag","er"],["age","r"],["er","ste"],["ers","te"],["erst","e"],["▁hab","ía"],["c","os"],["co","s"],["▁κά","πο"],["š","te"],["št","e"],["ре","ди"],["ред","и"],["▁h","ot"],["▁ho","t"],["сту","п"],["▁d","ia"],["▁di","a"],["▁f","em"],["▁fe","m"],["g","ovor"],["go","vor"],["gov","or"],["z","ej"],["ze","j"],["н","ето"],["не","то"],["i","cu"],["ic","u"],["o","th"],["ot","h"],["ke","it"],["▁t","is"],["▁ti","s"],["▁S","an"],["▁Sa","n"],["ie","ms"],["iem","s"],["▁m","am"],["▁ma","m"],["an","ten"],["ant","en"],["ante","n"],["▁per","m"],["▁in","tern"],["▁int","ern"],["▁inter","n"],["ug","h"],["m","lu"],["o","sten"],["os","ten"],["ost","en"],["▁","zien"],["▁z","ien"],["▁zi","en"],["u","rd"],["ur","d"],["en","za"],["enz","a"],["де","сет"],["▁go","ed"],["▁m","and"],["▁ma","nd"],["▁man","d"],["▁v","ier"],["▁vi","er"],["▁vie","r"],["▁ak","tiv"],["▁akt","iv"],["▁вре","мя"],["▁","vē"],["▁v","ē"],["▁","ха"],["▁х","а"],["▁iesp","ēj"],["▁κ","οι"],["▁κο","ι"],["▁κά","τι"],["f","ar"],["fa","r"],["в","ід"],["ві","д"],["ва","та"],["ват","а"],["▁ga","an"],["▁t","ämä"],["▁tä","mä"],["a","ki"],["ak","i"],["▁é","v"],["p","lat"],["pl","at"],["pla","t"],["t","ica"],["ti","ca"],["tic","a"],["▁ti","kr"],["▁tik","r"],["▁","ασ"],["▁α","σ"],["é","tait"],["ét","ait"],["▁tut","to"],["▁in","vest"],["▁inv","est"],["r","ow"],["ro","w"],["вропе","й"],["▁t","ento"],["▁ten","to"],["t","h"],["e","gy"],["eg","y"],["чи","на"],["чин","а"],["▁","led"],["▁l","ed"],["▁le","d"],["▁","pēc"],["▁p","ēc"],["▁någ","ot"],["▁u","sk"],["▁us","k"],["ħ","ab"],["ħa","b"],["λε","υ"],["▁t","ing"],["▁tin","g"],["▁t","oda"],["▁to","da"],["▁tod","a"],["▁έχ","ουν"],["μ","φ"],["▁j","į"],["▁u","čin"],["▁uč","in"],["▁z","elo"],["▁ze","lo"],["▁пот","рі"],["▁probl","ém"],["▁A","g"],["▁A","ust"],["▁Au","st"],["▁Aus","t"],["▁Έ","τσι"],["u","mo"],["um","o"],["▁k","rit"],["▁kr","it"],["▁kri","t"],["▁","hol"],["▁h","ol"],["▁ho","l"],["▁Th","is"],["▁vš","ak"],["ali","for"],["▁üt","les"],["ā","v"],["ст","ву"],["▁t","ab"],["▁ta","b"],["▁W","enn"],["ма","ти"],["▁ч","ем"],["▁че","м"],["ogra","f"],["π","ή"],["▁ce","ea"],["▁m","ont"],["▁mon","t"],["▁înt","â"],["▁зна","ю"],["▁S","k"],["▁","äh"],["▁ä","h"],["▁pro","jekt"],["▁projek","t"],["ви","м"],["▁dem","ok"],["▁ot","her"],["▁M","yslím"],["ä","ll"],["äl","l"],["▁t","ru"],["▁tr","u"],["▁ви","де"],["▁u","koll"],["▁uk","oll"],["ation","al"],["í","z"],["én","t"],["до","м"],["o","lat"],["ol","at"],["ola","t"],["itt","le"],["▁Al","lura"],["▁All","ura"],["▁wir","klich"],["b","olj"],["bo","lj"],["bol","j"],["▁ot","ro"],["▁otr","o"],["▁tyl","ko"],["ξ","ε"],["k","ou"],["ko","u"],["p","el"],["pe","l"],["i","nis"],["in","is"],["ini","s"],["▁o","ike"],["auc","oup"],["▁pl","ace"],["▁pla","ce"],["ü","s"],["у","н"],["ħ","da"],["▁z","um"],["▁zu","m"],["▁ja","un"],["▁jau","n"],["á","te"],["át","e"],["it","ti"],["itt","i"],["▁b","os"],["▁bo","s"],["i","mos"],["im","os"],["imo","s"],["лко","ва"],["▁r","ész"],["▁ré","sz"],["▁rés","z"],["i","cz"],["ic","z"],["s","kat"],["sk","at"],["ska","t"],["▁ter","min"],["▁term","in"],["ț","e"],["ħ","na"],["▁h","ay"],["▁ha","y"],["▁h","all"],["▁ha","ll"],["▁hal","l"],["δ","ι"],["i","ais"],["ia","is"],["▁συ","ν"],["ó","wi"],["ów","i"],["an","no"],["ann","o"],["▁э","том"],["▁это","м"],["▁ol","lut"],["u","do"],["ud","o"],["un","to"],["unt","o"],["кла","д"],["ó","ż"],["ę","d"],["ρ","ίζ"],["ρί","ζ"],["in","āt"],["inā","t"],["s","em"],["se","m"],["н","ні"],["▁S","c"],["▁s","ad"],["▁sa","d"],["▁p","ur"],["▁pu","r"],["r","å"],["пол","зва"],["▁W","o"],["t","ö"],["▁D","in"],["▁Di","n"],["▁i","mm"],["▁im","m"],["▁v","yt"],["▁vy","t"],["▁мо","га"],["l","og"],["lo","g"],["▁въ","з"],["▁у","ве"],["in","der"],["ind","er"],["inde","r"],["▁p","rad"],["▁pr","ad"],["▁pra","d"],["▁α","ρ"],["en","da"],["end","a"],["▁ac","um"],["▁сво","и"],["▁ob","ser"],["▁na","ħseb"],["ъ","н"],["▁da","wn"],["▁v","iss"],["▁vi","ss"],["▁vis","s"],["le","žit"],["i","ef"],["ie","f"],["хо","д"],["ю","щи"],["á","j"],["▁M","er"],["▁Me","r"],["▁u","sp"],["▁us","p"],["d","enti"],["den","ti"],["▁a","qui"],["▁aqu","i"],["▁b","ych"],["▁by","ch"],["▁біль","ше"],["u","nud"],["un","ud"],["ú","n"],["n","ar"],["na","r"],["ре","с"],["▁d","ů"],["▁","κό"],["▁κ","ό"],["▁f","os"],["▁fo","s"],["▁pa","dar"],["▁pad","ar"],["ίζ","ω"],["▁l","í"],["an","ju"],["▁ein","fach"],["i","os"],["io","s"],["r","ii"],["ri","i"],["o","wi"],["ow","i"],["i","ger"],["ig","er"],["ige","r"],["á","val"],["áv","al"],["áva","l"],["ού","με"],["▁","lat"],["▁l","at"],["▁la","t"],["ć","u"],["in","ote"],["ino","te"],["▁ma","teri"],["▁mat","eri"],["▁P","al"],["▁Pa","l"],["▁f","ie"],["▁fi","e"],["▁p","ic"],["▁pi","c"],["ci","u"],["t","os"],["to","s"],["▁n","år"],["▁by","la"],["▁byl","a"],["▁n","ast"],["▁na","st"],["▁nas","t"],["▁","jų"],["▁j","ų"],["▁T","or"],["▁To","r"],["h","eden"],["he","den"],["hed","en"],["▁po","der"],["▁pod","er"],["▁pode","r"],["▁be","cause"],["▁которы","й"],["ā","ja"],["āj","a"],["č","ní"],["▁import","ant"],["e","kom"],["ek","om"],["eko","m"],["▁S","er"],["▁Se","r"],["λ","ί"],["▁","Χ"],["▁F","ör"],["▁m","j"],["n","ici"],["ni","ci"],["nic","i"],["ва","ния"],["▁в","ла"],["▁L","ond"],["▁Lo","nd"],["▁w","sp"],["з","ь"],["▁s","ens"],["▁se","ns"],["▁sen","s"],["▁na","čin"],["ρ","υ"],["ю","ться"],["ють","ся"],["▁est","ão"],["▁pot","om"],["đ","u"],["z","és"],["ли","ч"],["▁h","und"],["▁hu","nd"],["▁hun","d"],["ü","t"],["ши","й"],["▁g","ł"],["▁с","пра"],["▁сп","ра"],["iek","š"],["▁h","onom"],["▁ho","nom"],["▁hon","om"],["ation","en"],["но","в"],["ρ","ετε"],["ρε","τε"],["o","mo"],["om","o"],["z","or"],["zo","r"],["▁b","lo"],["▁bl","o"],["▁","rok"],["▁r","ok"],["▁ro","k"],["▁о","ще"],["▁r","ela"],["▁re","la"],["▁rel","a"],["▁με","γά"],["ē","d"],["▁","rak"],["▁r","ak"],["▁ra","k"],["▁","διά"],["▁δ","ιά"],["▁δι","ά"],["▁μό","νο"],["ко","в"],["▁I","gen"],["▁nor","m"],["un","ca"],["▁d","or"],["▁do","r"],["▁M","ens"],["▁Me","ns"],["▁Men","s"],["ü","lt"],["ül","t"],["ė","tų"],["ėt","ų"],["▁J","ā"],["▁D","us"],["▁Du","s"],["▁j","im"],["▁ji","m"],["▁по","в"],["a","rá"],["ar","á"],["▁s","í"],["▁j","ät"],["▁jä","t"],["p","po"],["pp","o"],["т","тя"],["▁G","u"],["▁на","и"],["▁c","las"],["▁cl","as"],["▁z","ato"],["▁za","to"],["▁zat","o"],["▁tom","to"],["▁w","eb"],["▁we","b"],["a","ug"],["au","g"],["o","lt"],["ol","t"],["▁li","ik"],["w","y"],["г","е"],["но","ю"],["▁r","ää"],["▁χ","ρό"],["▁s","ina"],["▁si","na"],["▁sin","a"],["▁kont","rol"],["a","ram"],["ar","am"],["ara","m"],["▁j","kun"],["▁ge","bru"],["▁geb","ru"],["▁то","лкова"],["i","an"],["ia","n"],["am","ise"],["ami","se"],["amis","e"],["▁dou","ă"],["▁võ","ib"],["▁või","b"],["ικ","έ"],["▁","ét"],["▁é","t"],["▁l","or"],["▁lo","r"],["▁","ingen"],["▁in","gen"],["▁ing","en"],["▁n","ende"],["▁nen","de"],["š","ki"],["šk","i"],["ama","an"],["▁o","rig"],["▁or","ig"],["▁ori","g"],["▁го","ло"],["▁tut","ti"],["▁може","т"],["d","ag"],["da","g"],["▁Θ","α"],["k","ken"],["kk","en"],["kke","n"],["▁p","oh"],["▁po","h"],["on","tos"],["ont","os"],["j","ší"],["i","kti"],["ik","ti"],["ikt","i"],["ме","ри"],["мер","и"],["▁t","uo"],["▁tu","o"],["▁se","us"],["▁seu","s"],["▁","λί"],["▁λ","ί"],["▁su","pp"],["к","с"],["i","lu"],["il","u"],["▁v","ro"],["▁vr","o"],["wi","ę"],["▁E","v"],["▁τό","σο"],["▁п","реди"],["▁пре","ди"],["▁пред","и"],["▁tv","å"],["▁z","we"],["▁zw","e"],["▁pu","tea"],["▁put","ea"],["▁prob","ab"],["об","ре"],["▁m","õt"],["▁mõ","t"],["em","ber"],["emb","er"],["▁g","øre"],["▁zd","rav"],["κό","μα"],["▁l","iel"],["▁li","el"],["▁lie","l"],["▁o","stat"],["▁ost","at"],["▁to","ate"],["▁z","p"],["▁h","it"],["▁hi","t"],["▁t","ras"],["▁tr","as"],["▁tra","s"],["b","el"],["be","l"],["▁m","illi"],["▁mil","li"],["▁mill","i"],["▁be","aucoup"],["ю","тся"],["ют","ся"],["ř","ed"],["ře","d"],["is","kt"],["isk","t"],["▁n","oi"],["▁no","i"],["▁πε","ρί"],["▁j","ó"],["▁p","ré"],["▁pr","é"],["▁D","ies"],["▁Di","es"],["▁Die","s"],["▁con","tra"],["▁cont","ra"],["▁то","лько"],["f","o"],["▁l","ong"],["▁lon","g"],["▁ti","jd"],["▁tij","d"],["▁d","ivers"],["▁di","vers"],["▁div","ers"],["▁diver","s"],["▁t","ým"],["▁tý","m"],["▁χ","ρη"],["▁għa","x"],["▁po","ate"],["g","io"],["gi","o"],["ov","ala"],["ova","la"],["oval","a"],["▁ap","enas"],["▁lo","ok"],["▁ku","ris"],["▁kur","is"],["▁kuri","s"],["▁tal","ál"],["o","wy"],["ow","y"],["š","ta"],["št","a"],["ли","ти"],["▁Γ","ια"],["▁","ско"],["▁с","ко"],["▁M","ich"],["▁Mi","ch"],["▁l","ill"],["▁li","ll"],["▁lil","l"],["▁wie","ħed"],[",","."],["▁","ją"],["▁j","ą"],["▁l","ö"],["u","nos"],["un","os"],["uno","s"],["▁m","oj"],["▁mo","j"],["ė","ra"],["▁st","op"],["▁sto","p"],["š","ķ"],["▁r","és"],["▁ré","s"],["▁p","raw"],["▁pr","aw"],["▁pra","w"],["s","et"],["se","t"],["e","let"],["el","et"],["ele","t"],["▁m","ia"],["▁mi","a"],["▁p","az"],["▁pa","z"],["▁im","mer"],["▁imm","er"],["s","l"],["▁","vin"],["▁v","in"],["▁vi","n"],["▁","antes"],["▁an","tes"],["▁ant","es"],["▁co","uld"],["▁cou","ld"],["▁συ","νέ"],["▁συν","έ"],["i","my"],["im","y"],["or","th"],["ort","h"],["ло","же"],["▁reg","ion"],["é","se"],["és","e"],["al","le"],["all","e"],["ia","us"],["iau","s"],["un","ci"],["ър","жа"],["▁m","ine"],["▁mi","ne"],["▁min","e"],["u","du"],["ud","u"],["▁s","as"],["▁sa","s"],["or","dan"],["ord","an"],["▁w","ork"],["▁wor","k"],["▁koh","ta"],["▁испо","ль"],["p","art"],["pa","rt"],["par","t"],["ás","ok"],["чи","те"],["▁ge","wo"],["▁gew","o"],["▁tri","mest"],["▁k","än"],["▁kä","n"],["ны","ми"],["ным","и"],["▁S","in"],["▁Si","n"],["▁pr","oc"],["▁pro","c"],["▁finan","ci"],["▁G","ra"],["▁Gr","a"],["▁v","om"],["▁vo","m"],["▁мо","гу"],["▁","Β"],["j","ad"],["ja","d"],["k","sen"],["ks","en"],["▁tw","ee"],["▁twe","e"],["ł","ą"],["k","iem"],["ki","em"],["kie","m"],["v","ern"],["ver","n"],["▁J","er"],["▁Je","r"],["▁j","ou"],["▁jo","u"],["▁","zi"],["▁z","i"],["os","es"],["ose","s"],["ē","ram"],["ēr","am"],["▁r","oh"],["▁ro","h"],["▁v","ig"],["▁vi","g"],["▁me","ine"],["u","f"],["γ","ε"],["o","nu"],["on","u"],["▁n","j"],["e","ken"],["ek","en"],["σι","μο"],["▁T","ako"],["▁Ta","ko"],["▁Tak","o"],["u","tu"],["ut","u"],["▁Н","у"],["▁A","ll"],["▁Al","l"],["▁αυ","τά"],["▁αυτ","ά"],["ρ","ει"],["ρε","ι"],["á","va"],["áv","a"],["▁est","amos"],["▁esta","mos"],["i","bil"],["ib","il"],["▁","nici"],["▁n","ici"],["▁ni","ci"],["ø","j"],["a","nu"],["an","u"],["ρ","ιο"],["ρι","ο"],["ic","ké"],["ick","é"],["ig","ur"],["m","ény"],["▁G","al"],["▁comp","let"],["▁compl","et"],["ė","k"],["и","н"],["▁d","l"],["ut","oč"],["uto","č"],["▁","jus"],["▁j","us"],["▁ju","s"],["▁σ","χ"],["sk","ih"],["ski","h"],["▁σ","χε"],["▁σχ","ε"],["t","ions"],["ti","ons"],["tion","s"],["к","ан"],["ка","н"],["▁chi","ar"],["б","я"],["d","aj"],["da","j"],["p","un"],["pu","n"],["ε","ία"],["εί","α"],["er","k"],["▁Å","h"],["▁M","it"],["▁Mi","t"],["▁","aga"],["▁a","ga"],["▁ag","a"],["▁c","ro"],["▁cr","o"],["am","eni"],["ame","ni"],["amen","i"],["▁vi","ac"],["▁via","c"],["▁for","di"],["n","te"],["s","on"],["so","n"],["č","ne"],["▁F","inn"],["▁Fin","n"],["▁v","å"],["пре","де"],["▁s","ing"],["▁sin","g"],["▁боль","ше"],["▁h","ow"],["▁ho","w"],["▁tagħ","ha"],["ā","ka"],["āk","a"],["ви","д"],["▁","ор"],["▁о","р"],["▁en","or"],["▁re","ce"],["▁rec","e"],["▁не","ща"],["f","l"],["▁min","ä"],["▁ge","nom"],["▁gen","om"],["▁vel","mi"],["ř","eb"],["ře","b"],["ра","т"],["ци","те"],["▁е","ще"],["▁f","und"],["▁fu","nd"],["▁fun","d"],["▁","ug"],["▁u","g"],["p","ect"],["pe","ct"],["pec","t"],["▁A","ga"],["▁Ag","a"],["▁s","od"],["▁so","d"],["▁zg","od"],["▁ž","mon"],["▁žm","on"],["u","th"],["ut","h"],["n","ings"],["ning","s"],["▁sl","už"],["▁slu","ž"],["▁i","ar"],["▁Par","lament"],["θ","έ"],["á","ly"],["ál","y"],["μ","έν"],["μέ","ν"],["▁kter","á"],["i","ens"],["ie","ns"],["ien","s"],["m","ist"],["mi","st"],["mis","t"],["ли","сь"],["u","ry"],["ur","y"],["r","ati"],["ra","ti"],["rat","i"],["▁fat","to"],["▁se","dan"],["▁sed","an"],["▁seda","n"],["č","í"],["o","ugh"],["oug","h"],["▁es","mu"],["▁как","во"],["▁tied","ätkö"],["il","ler"],["ill","er"],["ille","r"],["▁ча","ст"],["▁час","т"],["ic","al"],["ica","l"],["▁kon","f"],["▁qu","anto"],["a","ted"],["at","ed"],["ate","d"],["▁T","re"],["▁Tr","e"],["э","тому"],["▁dru","h"],["▁πα","ρά"],["ни","ю"],["▁","ше"],["▁ш","е"],["▁ih","re"],["▁ihr","e"],["o","lj"],["ol","j"],["▁în","c"],["▁ja","oks"],["▁πρά","γμα"],["▁b","ev"],["▁be","v"],["▁z","an"],["▁za","n"],["▁b","ere"],["▁be","re"],["▁ber","e"],["▁r","ight"],["▁rig","ht"],["▁e","zt"],["▁ez","t"],["▁t","ika"],["▁ti","ka"],["▁tik","a"],["▁do","bre"],["▁dob","re"],["▁t","us"],["▁tu","s"],["▁č","ia"],["▁či","a"],["m","t"],["ž","no"],["▁l","ot"],["▁lo","t"],["▁n","ám"],["▁ná","m"],["▁","ener"],["▁e","ner"],["▁en","er"],["▁prz","ed"],["▁prze","d"],["k","um"],["ku","m"],["▁s","é"],["▁prof","es"],["e","lem"],["el","em"],["ele","m"],["▁ind","iv"],["▁indi","v"],["ß","en"],["я","ви"],["▁G","ħal"],["▁pa","ar"],["▁p","iem"],["▁pi","em"],["▁pie","m"],["is","as"],["isa","s"],["▁k","ah"],["▁ka","h"],["▁","osa"],["▁o","sa"],["▁os","a"],["▁zn","ate"],["▁zna","te"],["▁I","żda"],["▁tro","chu"],["▁U","ni"],["▁Un","i"],["▁j","ista"],["▁ji","sta"],["▁jis","ta"],["▁jist","a"],["▁ktor","á"],["▁pro","cent"],["▁proc","ent"],["ä","hr"],["äh","r"],["zn","ál"],["▁f","ue"],["▁fu","e"],["ство","то"],["▁kö","vet"],["ні","сть"],["▁ре","зу"],["▁publi","c"],["ra","š"],["▁P","at"],["▁Pa","t"],["▁Ν","αι"],["▁ня","ма"],["ů","m"],["en","ty"],["ent","y"],["ст","ру"],["▁c","ada"],["▁ca","da"],["g","eb"],["ge","b"],["q","as"],["qa","s"],["n","ica"],["ni","ca"],["nic","a"],["▁D","at"],["▁Da","t"],["is","elt"],["ise","lt"],["ar","m"],["▁","πά"],["▁π","ά"],["in","ger"],["ing","er"],["inge","r"],["χ","ι"],["č","né"],["▁","mest"],["▁m","est"],["▁me","st"],["▁mes","t"],["▁die","ser"],["▁dies","er"],["▁diese","r"],["y","er"],["ye","r"],["▁f","ö"],["▁ну","жно"],["v","aj"],["va","j"],["н","ан"],["на","н"],["as","se"],["ass","e"],["st","at"],["sta","t"],["ли","ся"],["ма","та"],["en","tar"],["ent","ar"],["enta","r"],["▁k","n"],["▁C","re"],["▁upor","ab"],["o","ren"],["or","en"],["ore","n"],["▁π","αι"],["▁πα","ι"],["▁by","ło"],["▁był","o"],["▁ac","tiv"],["k","od"],["ko","d"],["▁","ky"],["▁k","y"],["ла","та"],["li","chen"],["lic","hen"],["lich","en"],["liche","n"],["π","ι"],["▁συ","νε"],["▁συν","ε"],["i","go"],["ig","o"],["t","ava"],["ta","va"],["tav","a"],["é","rie"],["ér","ie"],["éri","e"],["▁мі","с"],["▁di","zer"],["▁mid","agi"],["▁mida","gi"],["wa","ć"],["▁","ця"],["▁ц","я"],["▁m","ille"],["▁mil","le"],["▁mill","e"],["τ","ων"],["τω","ν"],["in","ės"],["inė","s"],["▁ze","i"],["зна","ча"],["n","je"],["ī","ga"],["īg","a"],["▁K","ol"],["▁Ko","l"],["▁","rav"],["▁r","av"],["▁ra","v"],["▁t","ip"],["▁ti","p"],["▁po","zn"],["▁poz","n"],["▁je","śli"],["▁na","dal"],["▁nad","al"],["▁nada","l"],["▁b","ef"],["▁be","f"],["▁f","is"],["▁fi","s"],["▁k","unt"],["▁kun","t"],["k","am"],["ka","m"],["▁d","am"],["▁da","m"],["ort","un"],["▁мо","жу"],["č","il"],["či","l"],["▁h","us"],["▁hu","s"],["▁te","is"],["ate","ľ"],["▁F","re"],["▁c","op"],["▁co","p"],["▁","сти"],["▁с","ти"],["▁ст","и"],["▁com","men"],["▁comme","n"],["▁on","line"],["▁t","ant"],["▁tan","t"],["m","us"],["mu","s"],["v","ät"],["vä","t"],["жли","во"],["▁g","las"],["▁gl","as"],["▁gla","s"],["▁su","ure"],["▁suur","e"],["▁S","í"],["▁a","ici"],["▁ai","ci"],["▁kas","ut"],["k","ri"],["kr","i"],["▁T","oda"],["▁To","da"],["▁Tod","a"],["▁j","ste"],["▁js","te"],["ņ","ēm"],["š","ím"],["ší","m"],["j","est"],["je","st"],["jes","t"],["▁","uni"],["▁u","ni"],["▁un","i"],["▁to","us"],["▁tou","s"],["▁","μά"],["▁μ","ά"],["an","ne"],["ann","e"],["▁P","os"],["▁Po","s"],["▁Te","raz"],["▁Ter","az"],["s","ő"],["▁S","m"],["▁","stav"],["▁s","tav"],["▁st","av"],["▁sta","v"],["p","al"],["pa","l"],["ва","л"],["▁κ","υ"],["▁","ки"],["▁к","и"],["▁C","or"],["▁Co","r"],["▁s","ex"],["▁se","x"],["▁sp","ole"],["▁spo","le"],["▁produ","kt"],["▁produk","t"],["▁gew","oon"],["▁gewo","on"],["▁so","cial"],["▁soci","al"],["p","är"],["pä","r"],["é","re"],["ér","e"],["▁s","f"],["▁l","ju"],["▁põ","h"],["▁","rid"],["▁r","id"],["▁ri","d"],["▁mo","že"],["▁mož","e"],["▁til","b"],["em","ents"],["ement","s"],["▁Α","ν"],["og","le"],["vo","us"],["▁m","aks"],["▁ma","ks"],["▁mak","s"],["▁s","ystem"],["▁syst","em"],["un","der"],["und","er"],["unde","r"],["▁aqu","í"],["▁ja","ar"],["▁s","ign"],["▁sig","n"],["▁em","pres"],["á","nak"],["án","ak"],["▁α","νά"],["▁αν","ά"],["▁b","ack"],["▁ba","ck"],["▁бы","ла"],["▁был","а"],["l","ex"],["le","x"],["▁","fü"],["▁f","ü"],["▁et","was"],["▁ма","й"],["▁F","ace"],["▁You","T"],["▁f","ejn"],["▁fe","jn"],["▁fej","n"],["ek","tr"],["ekt","r"],["a","ix"],["ai","x"],["un","de"],["und","e"],["▁še","it"],["▁arb","ej"],["▁","jav"],["▁j","av"],["▁ja","v"],["z","ioni"],["zi","oni"],["zion","i"],["▁си","сте"],["▁из","ползва"],["y","e"],["в","ят"],["вя","т"],["▁m","é"],["▁y","h"],["ad","ores"],["ado","res"],["ador","es"],["▁d","iver"],["▁di","ver"],["▁div","er"],["▁me","nos"],["▁men","os"],["▁ku","idas"],["▁kui","das"],["▁kuid","as"],["h","ez"],["he","z"],["č","it"],["či","t"],["ál","ní"],["ва","ме"],["вам","е"],["t","ar"],["ta","r"],["ч","ин"],["чи","н"],["f","te"],["ft","e"],["ц","ій"],["ці","й"],["▁ú","l"],["▁id","ő"],["▁m","ange"],["▁man","ge"],["e","lig"],["el","ig"],["eli","g"],["ма","га"],["▁b","ola"],["▁bo","la"],["▁bol","a"],["▁по","ви"],["▁пов","и"],["b","les"],["bl","es"],["ble","s"],["▁m","nog"],["▁mno","g"],["▁he","idän"],["wi","ą"],["▁K","r"],["▁b","odo"],["▁bo","do"],["e","ge"],["eg","e"],["p","lu"],["pl","u"],["ви","й"],["те","лно"],["тел","но"],["i","mu"],["im","u"],["un","n"],["t","ir"],["ti","r"],["ν","τα"],["ă","tor"],["ăt","or"],["▁εκ","εί"],["▁v","elik"],["▁ve","lik"],["▁vel","ik"],["▁b","ūs"],["▁bū","s"],["▁Un","ter"],["▁au","tor"],["▁aut","or"],["▁i","denti"],["▁id","enti"],["▁sit","ten"],["▁sitt","en"],["д","же"],["ч","ко"],["▁W","h"],["▁at","ât"],["▁sag","de"],["ån","g"],["▁E","h"],["d","rig"],["▁m","ám"],["▁má","m"],["▁zo","als"],["▁dif","fic"],["▁diff","ic"],["k","ien"],["ki","en"],["kie","n"],["▁f","iz"],["▁fi","z"],["k","elig"],["ke","lig"],["kel","ig"],["▁vr","lo"],["а","а"],["▁w","id"],["▁wi","d"],["▁ü","le"],["▁вико","ри"],["γ","ου"],["γο","υ"],["▁C","zy"],["▁","cho"],["▁c","ho"],["▁ch","o"],["▁","fri"],["▁f","ri"],["▁fr","i"],["▁ту","к"],["▁pok","ud"],["▁a","té"],["▁at","é"],["▁ji","ġ"],["▁","pid"],["▁p","id"],["▁pi","d"],["▁бо","лее"],["μα","το"],["end","re"],["▁ser","vi"],["▁serv","i"],["āt","ad"],["▁π","ρώ"],["r","z"],["õ","t"],["▁s","w"],["▁m","ur"],["▁mu","r"],["▁","σαν"],["▁σ","αν"],["▁σα","ν"],["▁r","app"],["▁ra","pp"],["▁fă","cut"],["ar","ijiet"],["ari","jiet"],["▁","ū"],["c","el"],["ce","l"],["d","ru"],["er","ta"],["ert","a"],["▁z","eg"],["▁ze","g"],["▁","issa"],["▁is","sa"],["▁p","asa"],["▁pa","sa"],["▁pas","a"],["▁жи","во"],["▁In","ter"],["E","N"],["a","gu"],["ag","u"],["χ","ει"],["χε","ι"],["▁","uw"],["▁u","w"],["a","nut"],["an","ut"],["anu","t"],["an","der"],["and","er"],["ande","r"],["▁b","rit"],["▁br","it"],["end","ant"],["▁bę","dzie"],["d","ě"],["н","ем"],["не","м"],["▁и","с"],["▁бу","ла"],["▁qu","indi"],["r","ou"],["ro","u"],["ч","на"],["▁","itt"],["▁i","tt"],["▁it","t"],["b","t"],["l","ož"],["lo","ž"],["▁O","kay"],["▁это","го"],["o","ch"],["oc","h"],["ov","ý"],["▁ta","x"],["сто","ри"],["▁w","ara"],["▁wa","ra"],["▁war","a"],["▁","бі"],["▁б","і"],["et","ty"],["ett","y"],["ô","sob"],["▁C","an"],["▁d","ve"],["▁dv","e"],["▁r","ep"],["▁re","p"],["▁я","ка"],["▁як","а"],["▁va","at"],["▁pon","ieważ"],["▁al","b"],["t","em"],["te","m"],["▁h","lav"],["▁m","itte"],["▁mit","te"],["k","re"],["kr","e"],["▁H","i"],["▁U","E"],["▁co","ś"],["▁j","id"],["▁ji","d"],["▁П","ри"],["▁te","hn"],["▁teh","n"],["▁ć","emo"],["▁će","mo"],["▁пос","лед"],["▁dav","vero"],["▁","Є"],["á","si"],["ás","i"],["▁","ла"],["i","hin"],["ih","in"],["▁o","ameni"],["▁prod","uk"],["▁produ","k"],["у","у"],["k","aa"],["ka","a"],["п","ъл"],["▁B","y"],["▁до","по"],["▁na","red"],["▁nar","ed"],["ė","te"],["ėt","e"],["AA","AA"],["▁ce","va"],["▁se","hen"],["▁st","ále"],["ku","š"],["ee","ee"],["ко","ло"],["▁","hin"],["▁h","in"],["▁hi","n"],["▁qual","c"],["▁tem","ps"],["▁","cha"],["▁c","ha"],["▁ch","a"],["▁","ora"],["▁o","ra"],["▁or","a"],["й","ти"],["чи","та"],["▁pol","í"],["▁qu","ar"],["æ","g"],["▁O","ui"],["r","ī"],["c","on"],["co","n"],["▁","кри"],["▁к","ри"],["▁ма","лко"],["é","ge"],["ég","e"],["ħ","aj"],["ħa","j"],["i","sem"],["is","em"],["ise","m"],["ál","is"],["▁an","al"],["▁p","eri"],["▁pe","ri"],["▁per","i"],["▁to","das"],["▁tod","as"],["▁toda","s"],["c","up"],["cu","p"],["▁d","ik"],["▁di","k"],["▁l","ove"],["▁lo","ve"],["▁lov","e"],["▁на","ча"],["ž","dy"],["žd","y"],["u","dzi"],["ud","zi"],["udz","i"],["▁po","co"],["▁to","en"],["▁pu","ede"],["â","r"],["τε","ύ"],["▁S","ta"],["▁St","a"],["▁","ach"],["▁a","ch"],["▁ac","h"],["к","ъ"],["j","eti"],["je","ti"],["jet","i"],["▁L","ab"],["▁La","b"],["▁v","íte"],["▁ví","te"],["▁cap","ac"],["or","den"],["ord","en"],["▁k","raj"],["▁kr","aj"],["▁kra","j"],["▁а","вто"],["▁ma","ail"],["▁un","ser"],["▁uns","er"],["▁diff","eren"],["▁t","ý"],["▁A","us"],["▁Au","s"],["▁ty","ö"],["▁o","ħra"],["▁wa","ħda"],["h","in"],["hi","n"],["ie","js"],["iej","s"],["óó","óó"],["šk","ai"],["▁K","ad"],["▁Ka","d"],["фор","ма"],["I","T"],["j","ä"],["ne","y"],["in","io"],["ini","o"],["▁W","est"],["▁We","st"],["it","ter"],["itt","er"],["itte","r"],["▁Ze","it"],["▁fin","al"],["▁tag","asi"],["▁sell","est"],["▁selle","st"],["e","nu"],["en","u"],["ви","х"],["it","se"],["its","e"],["l","iet"],["li","et"],["lie","t"],["▁сво","ї"],["▁util","iz"],["in","do"],["ind","o"],["▁k","aks"],["▁ka","ks"],["▁kak","s"],["▁daug","iau"],["t","ia"],["ti","a"],["ро","д"],["raw","dę"],["▁b","end"],["▁be","nd"],["▁ben","d"],["▁d","iss"],["▁di","ss"],["▁dis","s"],["s","ä"],["i","tev"],["it","ev"],["ite","v"],["ħħ","ar"],["▁","art"],["▁a","rt"],["▁ar","t"],["▁у","ва"],["▁m","nie"],["▁es","tar"],["▁est","ar"],["▁esta","r"],["st","å"],["á","dz"],["ád","z"],["▁Д","ж"],["▁d","ess"],["▁de","ss"],["▁des","s"],["▁s","port"],["▁sp","ort"],["▁spo","rt"],["▁spor","t"],["▁T","ar"],["▁Ta","r"],["μ","μ"],["i","nas"],["in","as"],["ina","s"],["▁T","ātad"],["ρ","κ"],["t","ive"],["ti","ve"],["tiv","e"],["▁","сле"],["▁с","ле"],["▁t","orn"],["▁tor","n"],["▁om","dat"],["¡","¡"],["i","stu"],["is","tu"],["ist","u"],["▁","arg"],["▁ar","g"],["▁fol","k"],["▁tiem","po"],["▁D","it"],["▁Di","t"],["▁N","aj"],["▁Na","j"],["▁C","omo"],["▁Co","mo"],["▁Com","o"],["▁te","ha"],["▁teh","a"],["▁t","ört"],["▁tö","rt"],["▁y","hte"],["▁yh","te"],["ies","ies"],["▁по","тому"],["▁пот","ому"],["▁oprav","du"],["β","ά"],["▁","Φ"],["ie","š"],["i","kk"],["ik","k"],["▁k","ro"],["▁kr","o"],["▁Д","обре"],["a","că"],["ac","ă"],["ко","то"],["▁a","poi"],["▁ap","oi"],["▁po","už"],["▁pou","ž"],["▁w","koll"],["▁inter","net"],["▁intern","et"],["▁наи","стина"],["▁o","ù"],["v","ert"],["ve","rt"],["ver","t"],["j","í"],["й","о"],["ш","ь"],["b","ru"],["br","u"],["d","ej"],["de","j"],["τ","ια"],["τι","α"],["▁T","y"],["▁s","kr"],["▁sk","r"],["φ","έ"],["li","š"],["▁go","od"],["r","s"],["▁S","ì"],["▁m","ű"],["r","ól"],["ró","l"],["▁","ats"],["▁a","ts"],["▁at","s"],["h","eder"],["he","der"],["hed","er"],["▁R","a"],["▁z","ob"],["▁zo","b"],["in","ga"],["ing","a"],["▁","тра"],["▁т","ра"],["ew","wel"],["▁wh","ere"],["▁ка","кто"],["▁как","то"],["▁ne","cess"],["▁neces","s"],["▁YouT","ube"],["во","й"],["▁","govor"],["▁g","ovor"],["▁go","vor"],["▁gov","or"],["▁taj","jeb"],["▁","лу"],["▁m","ud"],["▁mu","d"],["ве","сти"],["▁aus","si"],["▁vi","ssz"],["▁vis","sz"],["▁viss","z"],["k","yt"],["ky","t"],["r","el"],["re","l"],["▁á","no"],["▁pa","ci"],["▁κάν","ει"],["в","ого"],["во","го"],["▁j","ul"],["▁ju","l"],["▁ме","жду"],["r","ā"],["p","il"],["pi","l"],["as","că"],["▁god","t"],["▁m","lad"],["▁pro","duc"],["▁produ","c"],["▁B","er"],["▁Be","r"],["▁š","kol"],["▁pove","dal"],["▁poved","al"],["el","m"],["t","ie"],["ti","e"],["▁","lar"],["▁l","ar"],["▁la","r"],["▁ма","є"],["▁","bolj"],["▁b","olj"],["▁bo","lj"],["▁bol","j"],["▁nie","čo"],["A","N"],["ra","ž"],["w","ad"],["wa","d"],["▁","eb"],["▁e","b"],["▁m","ake"],["▁ma","ke"],["▁mak","e"],["▁t","rad"],["▁tr","ad"],["▁tra","d"],["▁kül","ön"],["f","il"],["fi","l"],["en","des"],["end","es"],["ende","s"],["ac","cord"],["▁p","ul"],["▁pu","l"],["▁Те","пер"],["-","-"],["ú","s"],["ad","t"],["т","ре"],["▁in","sp"],["▁ins","p"],["▁h","ovor"],["▁ho","vor"],["at","ro"],["ло","ся"],["▁R","ich"],["▁al","drig"],["o","x"],["▁Р","о"],["i","ssä"],["is","sä"],["iss","ä"],["▁va","š"],["▁","ďal"],["▁п","ър"],["ва","нето"],["ване","то"],["▁pol","itik"],["▁polit","ik"],["▁politi","k"],["▁do","is"],["el","n"],["к","ту"],["кт","у"],["▁","cat"],["▁c","at"],["▁ca","t"],["▁z","ah"],["▁za","h"],["▁т","ру"],["▁n","ada"],["▁na","da"],["▁nad","a"],["▁k","ét"],["▁qu","é"],["t","ac"],["ta","c"],["я","ть"],["ят","ь"],["un","ta"],["unt","a"],["úú","úú"],["пе","ра"],["пер","а"],["ро","ят"],["▁l","ejn"],["▁le","jn"],["▁се","бе"],["▁po","int"],["w","or"],["wo","r"],["▁n","õ"],["▁q","al"],["▁s","um"],["▁su","m"],["▁с","ре"],["▁Im","ma"],["▁ne","var"],["▁nev","ar"],["a","den"],["ad","en"],["ade","n"],["▁ved","no"],["▁g","ol"],["▁go","l"],["▁jo","š"],["▁μ","ικ"],["▁j","aut"],["▁ja","ut"],["▁jau","t"],["▁m","ora"],["▁mo","ra"],["▁mor","a"],["▁p","otre"],["▁po","tre"],["▁pot","re"],["ь","ю"],["ло","м"],["▁J","ūs"],["αααα","αααα"],["▁","üh"],["▁ü","h"],["li","che"],["lic","he"],["lich","e"],["▁p","ien"],["▁pi","en"],["▁pie","n"],["▁С","о"],["en","ea"],["ene","a"],["μέ","νη"],["μέν","η"],["▁","ots"],["▁o","ts"],["▁ot","s"],["▁ž","in"],["▁ži","n"],["▁his","tor"],["▁hist","or"],["▁sk","utoč"],["ė","d"],["n","isk"],["ni","sk"],["nis","k"],["r","ata"],["ra","ta"],["rat","a"],["ки","те"],["▁V","an"],["▁Va","n"],["▁","vän"],["▁v","än"],["▁vä","n"],["▁b","esz"],["▁be","sz"],["▁bes","z"],["▁С","а"],["▁на","в"],["l","ement"],["le","ment"],["lem","ent"],["▁ag","ora"],["Ο","Ο"],["d","ig"],["di","g"],["v","ie"],["vi","e"],["▁f","ung"],["▁fun","g"],["▁n","ors"],["▁no","rs"],["▁nor","s"],["▁t","oga"],["▁to","ga"],["▁tog","a"],["▁pred","stav"],["c","ri"],["k","ra"],["kr","a"],["▁sa","gte"],["▁sag","te"],["▁v","este"],["▁ve","ste"],["▁ves","te"],["щ","у"],["č","an"],["ča","n"],["с","на"],["▁pri","jat"],["u","ren"],["ur","en"],["ure","n"],["▁l","ist"],["▁li","st"],["▁lis","t"],["▁","fic"],["▁f","ic"],["▁fi","c"],["▁Finn","ish"],["▁tikr","ųjų"],["v","iz"],["vi","z"],["▁с","ер"],["▁се","р"],["▁f","ast"],["▁fa","st"],["▁p","osta"],["▁po","sta"],["▁pos","ta"],["▁post","a"],["▁se","is"],["▁sei","s"],["▁mån","ga"],["л","ей"],["ле","й"],["▁S","z"],["▁","спе"],["▁с","пе"],["▁сп","е"],["▁la","bi"],["▁lab","i"],["▁te","hd"],["▁teh","d"],["▁полу","чи"],["▁b","ih"],["▁bi","h"],["si","oon"],["▁mu","cho"],["▁much","o"],["▁par","lament"],["▁parl","ament"],["ф","і"],["ж","де"],["▁","jä"],["▁j","ä"],["▁c","iv"],["▁ci","v"],["▁v","ic"],["▁vi","c"],["▁a","ika"],["▁ai","ka"],["▁ne","id"],["▁nei","d"],["des","mit"],["▁se","ine"],["▁sei","ne"],["▁sein","e"],["▁njeg","ov"],["▁prof","ess"],["▁profes","s"],["з","но"],["▁О","т"],["ло","ве"],["jor","de"],["▁O","len"],["▁Ol","en"],["▁f","ors"],["▁fo","rs"],["▁for","s"],["en","z"],["σ","κε"],["с","пе"],["▁an","c"],["▁ol","isi"],["▁oli","si"],["ü","let"],["ül","et"],["▁ju","h"],["▁","lov"],["▁l","ov"],["▁lo","v"],["▁n","ue"],["▁nu","e"],["▁a","ž"],["▁","ży"],["▁ż","y"],["a","sid"],["as","id"],["asi","d"],["▁i","hn"],["▁ih","n"],["▁im","ag"],["▁ima","g"],["▁n","ote"],["▁no","te"],["▁not","e"],["▁n","oti"],["▁no","ti"],["▁not","i"],["▁e","ivät"],["▁ei","vät"],["▁j","etzt"],["elik","ult"],["SS","SS"],["ва","ла"],["вал","а"],["▁s","la"],["▁sl","a"],["▁s","lut"],["▁sl","ut"],["▁slu","t"],["▁о","бе"],["▁об","е"],["m","anto"],["man","to"],["▁du","pă"],["▁ur","mă"],["▁ke","ine"],["▁α","κόμα"],["b","ild"],["bi","ld"],["bil","d"],["er","te"],["ert","e"],["i","tik"],["it","ik"],["iti","k"],["▁ни","ко"],["▁l","ittle"],["▁vir","kelig"],["▁s","ì"],["▁p","ob"],["▁po","b"],["▁t","ím"],["▁","тро"],["▁т","ро"],["ше","ние"],["▁","indi"],["▁in","di"],["▁ind","i"],["▁m","iejs"],["▁mie","js"],["σ","ια"],["σι","α"],["is","ko"],["isk","o"],["▁n","al"],["▁na","l"],["a","ħħar"],["▁z","daj"],["▁zd","aj"],["▁gy","ven"],["т","ро"],["▁l","ø"],["ha","tó"],["hat","ó"],["▁E","en"],["σ","τό"],["▁п","ар"],["▁па","р"],["▁με","τά"],["st","va"],["ema","al"],["ov","ých"],["ový","ch"],["q","t"],["e","dy"],["ed","y"],["▁","ano"],["▁a","no"],["▁an","o"],["▁l","op"],["▁lo","p"],["ol","iko"],["oli","ko"],["▁ti","eto"],["▁tie","to"],["▁tiet","o"],["ä","d"],["ž","as"],["ža","s"],["ті","м"],["н","ете"],["не","те"],["▁h","ak"],["▁ha","k"],["▁α","ρχ"],["▁αρ","χ"],["▁s","zem"],["▁sz","em"],["▁sp","olo"],["▁spo","lo"],["▁Face","bo"],["ó","mo"],["zn","am"],["zna","m"],["▁N","ap"],["▁Na","p"],["ле","ння"],["лен","ня"],["▁P","res"],["▁Pr","es"],["▁Pre","s"],["▁n","ėra"],["▁t","han"],["▁th","an"],["el","lement"],["ell","ement"],["elle","ment"],["b","ir"],["bi","r"],["k","ke"],["kk","e"],["p","ir"],["pi","r"],["ul","ta"],["ult","a"],["▁W","ie"],["▁l","on"],["▁lo","n"],["▁t","ämän"],["▁tämä","n"],["а","ль"],["al","ne"],["t","imo"],["ti","mo"],["tim","o"],["ка","то"],["▁r","ah"],["▁ra","h"],["▁ud","ěl"],["i","ds"],["id","s"],["ä","ch"],["▁and","re"],["▁b","esch"],["▁be","sch"],["▁bes","ch"],["▁nom","bre"],["a","go"],["ag","o"],["í","vel"],["ív","el"],["μέ","να"],["μέν","α"],["▁ор","га"],["▁n","ogle"],["▁nog","le"],["▁resp","ons"],["e","f"],["x","im"],["xi","m"],["▁о","би"],["▁об","и"],["▁p","och"],["▁po","ch"],["ning","ar"],["▁p","amat"],["▁pa","mat"],["▁pam","at"],["▁pa","sak"],["▁pas","ak"],["▁pasa","k"],["▁m","ė"],["▁","ens"],["▁e","ns"],["▁en","s"],["▁m","är"],["▁mä","r"],["▁c","har"],["▁ch","ar"],["▁cha","r"],["▁någ","on"],["▁ti","ene"],["▁tie","ne"],["▁tien","e"],["p","ot"],["po","t"],["ff","ff"],["š","ana"],["ša","na"],["šan","a"],["▁","ran"],["▁r","an"],["▁ra","n"],["μα","στε"],["▁t","unn"],["▁tun","n"],["t","aient"],["tai","ent"],["▁fa","vor"],["▁fav","or"],["▁raz","lič"],["▁зна","єте"],["▁за","в"],["▁b","lij"],["▁bl","ij"],["▁bli","j"],["▁s","ama"],["▁sa","ma"],["▁sam","a"],["▁дру","го"],["▁alle","en"],["a","th"],["at","h"],["es","n"],["pu","és"],["▁d","ěl"],["l","ek"],["le","k"],["š","ko"],["šk","o"],["д","ар"],["да","р"],["з","ни"],["▁y","o"],["▁B","en"],["▁Be","n"],["o","ms"],["om","s"],["▁ně","k"],["▁B","rit"],["▁Br","it"],["▁es","am"],["▁l","ite"],["▁li","te"],["▁pod","r"],["▁po","is"],["▁mes","mo"],["▁tod","ella"],["i","eden"],["ie","den"],["ied","en"],["▁и","гра"],["es","ed"],["ese","d"],["▁m","ali"],["▁ma","li"],["▁mal","i"],["i","vad"],["iv","ad"],["iva","d"],["▁sk","ute"],["▁sku","te"],["a","id"],["ai","d"],["ā","ks"],["āk","s"],["▁m","ysl"],["▁my","sl"],["▁ma","ken"],["▁mak","en"],["▁make","n"],["▁про","да"],["χ","αν"],["χα","ν"],["▁","том"],["▁то","м"],["ai","res"],["air","es"],["aire","s"],["▁fo","is"],["▁foi","s"],["▁για","τί"],["▁rze","czy"],["j","us"],["ju","s"],["τ","ών"],["τώ","ν"],["▁G","esch"],["▁Ge","sch"],["▁ko","mun"],["▁kom","un"],["er","de"],["erd","e"],["▁","ici"],["▁i","ci"],["▁n","in"],["▁ni","n"],["▁","way"],["▁w","ay"],["▁wa","y"],["▁де","я"],["▁l","ors"],["▁lo","rs"],["▁lor","s"],["▁pr","emi"],["▁pre","mi"],["▁prem","i"],["ле","нь"],["лен","ь"],["▁v","asta"],["▁va","sta"],["▁vas","ta"],["▁vast","a"],["c","en"],["ce","n"],["▁ah","ora"],["o","mi"],["om","i"],["σ","τά"],["▁dz","ī"],["▁s","ay"],["▁sa","y"],["▁da","ar"],["▁про","ду"],["▁uns","ere"],["▁unser","e"],["b","ro"],["br","o"],["ħ","or"],["θ","ρω"],["λ","εί"],["λε","ί"],["▁Г","о"],["▁","rat"],["▁r","at"],["▁ra","t"],["▁s","vé"],["▁sv","é"],["▁die","sem"],["▁dies","em"],["▁diese","m"],["▁потрі","бно"],["κ","ά"],["k","ao"],["ka","o"],["▁ε","γ"],["v","est"],["ve","st"],["ves","t"],["▁v","ou"],["▁vo","u"],["▁cont","rol"],["ħ","u"],["▁d","í"],["▁","δι"],["▁δ","ι"],["ia","ła"],["iał","a"],["▁jel","ent"],["▁tik","rai"],["▁tikr","ai"],["▁D","ž"],["▁pu","ol"],["▁Eu","rop"],["▁Euro","p"],["▁K","yllä"],["▁о","знача"],["i","des"],["id","es"],["ide","s"],["▁M","ac"],["▁Ma","c"],["▁c","ou"],["▁co","u"],["▁m","io"],["▁mi","o"],["▁","тем"],["▁т","ем"],["▁те","м"],["▁сво","ю"],["▁","ν"],["é","né"],["én","é"],["▁Ku","id"],["▁Kui","d"],["▁fir","st"],["δ","ιά"],["δι","ά"],["▁ol","id"],["▁oli","d"],["▁v","amos"],["▁va","mos"],["▁vam","os"],["▁sis","tem"],["▁sist","em"],["▁bl","iver"],["▁bli","ver"],["▁blive","r"],["▁asem","enea"],["a","jt"],["aj","t"],["a","nos"],["an","os"],["ano","s"],["же","ння"],["жен","ня"],["▁","esse"],["▁es","se"],["▁ess","e"],["▁p","omo"],["▁po","mo"],["▁pom","o"],["▁t","elj"],["▁te","lj"],["▁tel","j"],["▁tud","od"],["▁tudo","d"],["вите","льно"],["но","то"],["▁ap","m"],["i","enia"],["ie","nia"],["ien","ia"],["ieni","a"],["▁k","laus"],["▁h","ö"],["▁v","iv"],["▁vi","v"],["b","ól"],["▁","λέ"],["▁λ","έ"],["▁","rol"],["▁r","ol"],["▁ro","l"],["▁t","ah"],["▁ta","h"],["гле","жда"],["▁någ","ra"],["▁euro","pe"],["▁europ","e"],["o","mm"],["om","m"],["r","ir"],["ri","r"],["▁p","ala"],["▁pa","la"],["▁pal","a"],["▁Un","ivers"],["▁Uni","vers"],["ő","s"],["u","nut"],["un","ut"],["ло","сь"],["▁m","üs"],["ч","о"],["o","ki"],["ok","i"],["e","ron"],["er","on"],["ero","n"],["i","del"],["id","el"],["ide","l"],["▁","ese"],["▁e","se"],["▁es","e"],["▁b","and"],["▁ba","nd"],["▁ban","d"],["▁N","ii"],["▁Ni","i"],["▁s","vi"],["▁sv","i"],["ak","tar"],["akt","ar"],["▁spr","áv"],["▁va","stu"],["▁vas","tu"],["▁vast","u"],["s","sz"],["ss","z"],["▁","ps"],["▁p","s"],["▁est","án"],["▁está","n"],["σιμο","ποι"],["▁po","stav"],["▁pos","tav"],["▁post","av"],["▁posta","v"],["▁","ću"],["▁ć","u"],["al","ta"],["alt","a"],["c","ios"],["ci","os"],["cio","s"],["▁eu","h"],["▁про","дъл"],["▁pu","h"],["emm","än"],["č","nost"],["čno","st"],["▁P","ort"],["▁Po","rt"],["▁Por","t"],["▁","'"],["s","led"],["sl","ed"],["▁c","lar"],["▁cl","ar"],["▁Dak","le"],["▁kap","cs"],["▁el","ektr"],["▁ori","gin"],["▁orig","in"],["ê","s"],["▁Ú","gy"],["▁r","adi"],["▁ra","di"],["▁rad","i"],["▁ве","че"],["▁mar","ket"],["χ","ο"],["▁S","ir"],["▁Si","r"],["▁о","бо"],["▁об","о"],["▁W","illi"],["▁n","ista"],["▁ni","sta"],["▁nis","ta"],["a","mm"],["am","m"],["u","lo"],["ul","o"],["ń","st"],["at","el"],["ate","l"],["o","gen"],["og","en"],["v","iet"],["vi","et"],["vie","t"],["▁S","en"],["▁Se","n"],["▁tie","ž"],["▁sist","ema"],["▁sistem","a"],["g","ev"],["ge","v"],["i","at"],["ia","t"],["ė","je"],["ėj","e"],["▁a","cho"],["▁ac","ho"],["▁ach","o"],["▁ин","те"],["▁med","ic"],["ο","ο"],["in","de"],["ind","e"],["зо","ва"],["▁по","до"],["▁под","о"],["▁vol","ta"],["▁volt","a"],["ol","g"],["▁","lá"],["▁l","á"],["▁T","ra"],["▁Tr","a"],["y","g"],["e","ko"],["ek","o"],["r","io"],["ri","o"],["но","е"],["f","fen"],["ff","en"],["st","an"],["sta","n"],["▁h","alu"],["▁ha","lu"],["▁hal","u"],["z","on"],["zo","n"],["▁j","għ"],["▁dol","lar"],["▁doll","ar"],["xx","xx"],["▁k","all"],["▁ka","ll"],["▁kal","l"],["▁vol","na"],["▁ob","lasti"],["к","он"],["ко","н"],["▁w","ell"],["▁we","ll"],["▁wel","l"],["▁pro","jek"],["▁nap","rawdę"],["τ","εί"],["τε","ί"],["ν","εται"],["νε","ται"],["▁h","ran"],["▁t","rav"],["▁tr","av"],["▁tra","v"],["▁inst","itu"],["▁В","а"],["▁c","zę"],["▁cz","ę"],["▁c","ose"],["▁co","se"],["▁cos","e"],["e","ds"],["ed","s"],["▁S","tre"],["▁St","re"],["é","z"],["▁s","un"],["▁su","n"],["▁do","wn"],["▁f","ak"],["▁fa","k"],["▁s","le"],["▁sl","e"],["▁pä","iv"],["▁y","rit"],["▁де","нь"],["▁ден","ь"],["d","ob"],["do","b"],["▁","add"],["▁ad","d"],["▁f","ej"],["▁fe","j"],["▁pa","ís"],["▁i","ż"],["▁As","í"],["am","ais"],["ama","is"],["▁e","sim"],["▁es","im"],["▁k","uten"],["▁ku","ten"],["л","ни"],["in","gu"],["ing","u"],["▁J","ap"],["▁Ja","p"],["п","ы"],["з","ви"],["▁на","ше"],["▁so","met"],["▁som","et"],["▁some","t"],["▁tā","pēc"],["▁g","jorde"],["ro","š"],["č","ně"],["▁","γε"],["▁γ","ε"],["▁","νέ"],["▁ν","έ"],["▁ty","p"],["▁on","de"],["▁о","дно"],["▁од","но"],["▁","anden"],["▁an","den"],["▁and","en"],["с","ен"],["се","н"],["t","iva"],["ti","va"],["tiv","a"],["▁","lad"],["▁l","ad"],["▁la","d"],["▁ча","сти"],["▁час","ти"],["▁част","и"],["ъ","к"],["▁","θε"],["▁θ","ε"],["▁c","et"],["▁ce","t"],["▁p","ela"],["▁pe","la"],["▁pel","a"],["▁Τ","α"],["a","tiva"],["at","iva"],["ati","va"],["ativ","a"],["▁dal","ší"],["▁ně","jak"],["▁по","вер"],["▁пов","ер"],["▁пове","р"],["ž","d"],["no","ść"],["▁b","ár"],["▁","rov"],["▁r","ov"],["▁ro","v"],["▁σ","ου"],["но","сти"],["ност","и"],["▁","vari"],["▁v","ari"],["▁va","ri"],["▁var","i"],["▁and","eren"],["▁andere","n"],["n","ée"],["né","e"],["a","tos"],["at","os"],["ato","s"],["el","ta"],["elt","a"],["▁","rast"],["▁r","ast"],["▁ra","st"],["▁ras","t"],["▁bl","ive"],["▁bli","ve"],["▁g","esch"],["▁ge","sch"],["▁ges","ch"],["oz","aj"],["▁","ton"],["▁t","on"],["▁to","n"],["▁","chod"],["▁c","hod"],["▁ch","od"],["▁cho","d"],["▁за","ли"],["▁V","is"],["▁Vi","s"],["▁im","pl"],["▁imp","l"],["▁pä","rast"],["▁pär","ast"],["▁Mens","chen"],["ő","k"],["δ","ιο"],["δι","ο"],["en","di"],["end","i"],["▁ni","ż"],["is","es"],["ise","s"],["но","ви"],["нов","и"],["▁d","ij"],["▁di","j"],["▁","ros"],["▁r","os"],["▁ro","s"],["▁","robi"],["▁ro","bi"],["▁rob","i"],["▁est","aba"],["▁esta","ba"],["▁al","lt"],["▁all","t"],["▁su","as"],["▁sua","s"],["s","ew"],["se","w"],["▁C","i"],["v","ille"],["vil","le"],["▁s","ada"],["▁sa","da"],["▁sad","a"],["ност","та"],["▁na","ozaj"],["но","к"],["ot","to"],["ott","o"],["ž","eme"],["že","me"],["▁H","on"],["▁Ho","n"],["▁kal","b"],["▁p","ati"],["▁pa","ti"],["▁pat","i"],["▁w","iesz"],["▁wi","esz"],["▁wie","sz"],["ко","ю"],["▁с","п"],["ни","ят"],["ния","т"],["▁","kie"],["▁k","ie"],["▁ki","e"],["▁s","re"],["ва","йте"],["▁a","ast"],["▁var","ētu"],["f","al"],["fa","l"],["i","eb"],["ie","b"],["▁k","ér"],["▁","inde"],["▁in","de"],["▁ind","e"],["λο","γ"],["▁","åt"],["▁å","t"],["▁П","а"],["á","rio"],["ár","io"],["ári","o"],["▁j","it"],["▁ji","t"],["am","ine"],["ami","ne"],["l","igen"],["li","gen"],["lig","en"],["lige","n"],["▁ar","van"],["▁arv","an"],["▁main","tenant"],["in","ę"],["▁","ша"],["▁ш","а"],["▁S","el"],["▁Se","l"],["▁a","nim"],["▁an","im"],["▁ani","m"],["▁ig","az"],["▁mä","är"],["▁co","mer"],["▁com","er"],["▁come","r"],["▁op","era"],["▁oper","a"],["γ","ω"],["▁m","ov"],["▁mo","v"],["▁z","ach"],["▁za","ch"],["▁zac","h"],["▁po","sled"],["▁pos","led"],["▁ad","minist"],["e","ty"],["et","y"],["▁i","eg"],["▁ie","g"],["▁wür","de"],["ă","ră"],["ăr","ă"],["▁V","or"],["▁Vo","r"],["ak","ter"],["akt","er"],["pu","bli"],["▁m","undo"],["▁mun","do"],["▁n","unca"],["▁s","ł"],["▁б","лаго"],["ū","k"],["t","ri"],["tr","i"],["se","en"],["▁F","in"],["ħab","ba"],["▁s","itt"],["▁si","tt"],["▁sit","t"],["w","et"],["we","t"],["▁tar","ko"],["в","ете"],["ве","те"],["вет","е"],["▁k","au"],["▁ka","u"],["▁чо","ве"],["▁r","esta"],["▁re","sta"],["▁res","ta"],["▁rest","a"],["▁na","stav"],["▁nas","tav"],["▁nast","av"],["▁e","lement"],["▁el","ement"],["▁ele","ment"],["u","al"],["ua","l"],["▁х","м"],["ė","jau"],["ėj","au"],["ль","та"],["▁","gov"],["▁g","ov"],["▁go","v"],["▁n","äh"],["▁nä","h"],["▁t","ada"],["▁ta","da"],["▁tad","a"],["▁č","lov"],["c","ev"],["ce","v"],["c","za"],["cz","a"],["k","oj"],["ko","j"],["č","io"],["či","o"],["ali","za"],["aliz","a"],["▁as","sim"],["▁ass","im"],["є","ю"],["д","ра"],["ло","то"],["▁b","ran"],["▁br","an"],["▁bra","n"],["▁n","üüd"],["n","inger"],["ning","er"],["k","ę"],["ли","те"],["▁","бли"],["▁б","ли"],["and","id"],["▁hy","vä"],["▁hyv","ä"],["▁m","áme"],["▁má","me"],["▁mám","e"],["▁tilb","age"],["r","ede"],["re","de"],["red","e"],["▁n","ič"],["▁ni","č"],["▁E","uró"],["▁Eu","ró"],["▁k","iek"],["▁ki","ek"],["▁kie","k"],["▁jed","no"],["▁jedn","o"],["▁G","od"],["▁Go","d"],["▁","maz"],["▁m","az"],["▁ma","z"],["▁t","og"],["▁to","g"],["▁","vit"],["▁v","it"],["▁vi","t"],["▁","кли"],["▁к","ли"],["i","seen"],["ise","en"],["▁ar","ba"],["▁arb","a"],["ν","ια"],["▁T","i"],["b","ile"],["bi","le"],["bil","e"],["▁τ","ρό"],["en","nem"],["enn","em"],["▁Z","ato"],["▁Za","to"],["▁sa","at"],["▁B","l"],["▁","aki"],["▁a","ki"],["▁ak","i"],["▁","ier"],["▁i","er"],["▁ie","r"],["▁nek","oliko"],["ní","k"],["t","ivo"],["ti","vo"],["tiv","o"],["ка","ми"],["▁D","ur"],["▁Du","r"],["▁","iem"],["▁i","em"],["▁ie","m"],["ци","ята"],["ция","та"],["▁t","ová"],["▁to","vá"],["▁ο","ικο"],["▁οι","κο"],["▁ро","бо"],["▁хо","че"],["yt","tä"],["▁N","et"],["▁Ne","t"],["▁p","elo"],["▁pe","lo"],["▁pel","o"],["▁","minist"],["▁min","ist"],["▁","Ή"],["τ","ικέ"],["τικ","έ"],["▁S","tar"],["▁St","ar"],["▁Sta","r"],["▁","lige"],["▁l","ige"],["▁li","ge"],["▁lig","e"],["▁Je","śli"],["e","ct"],["ec","t"],["▁","rit"],["▁r","it"],["▁ri","t"],["▁per","f"],["u","ru"],["ur","u"],["đ","er"],["it","us"],["itu","s"],["к","тив"],["кти","в"],["▁T","hat"],["▁Th","at"],["▁pr","ieš"],["▁prie","š"],["▁w","issen"],["a","pa"],["ap","a"],["o","go"],["og","o"],["▁inc","l"],["▁a","voir"],["▁men","nes"],["▁min","dig"],["▁mind","ig"],["h","ány"],["▁","jut"],["▁j","ut"],["▁ju","t"],["▁s","ido"],["▁si","do"],["▁sid","o"],["▁de","cir"],["▁dec","ir"],["▁kap","it"],["š","la"],["▁Y","e"],["▁","ori"],["▁o","ri"],["▁or","i"],["t","avat"],["ta","vat"],["tav","at"],["tava","t"],["z","enia"],["ze","nia"],["zen","ia"],["▁D","ru"],["▁по","ч"],["ě","d"],["▁s","ir"],["▁si","r"],["▁i","ets"],["▁ie","ts"],["s","ág"],["ши","м"],["i","kus"],["ik","us"],["iku","s"],["l","ege"],["le","ge"],["leg","e"],["▁s","ätt"],["▁sä","tt"],["▁cos","as"],["▁cosa","s"],["▁co","isas"],["d","aw"],["da","w"],["je","š"],["č","aj"],["ča","j"],["e","ben"],["eb","en"],["▁w","eg"],["▁we","g"],["▁t","end"],["▁te","nd"],["▁ten","d"],["ą","d"],["π","έ"],["z","ion"],["zi","on"],["▁k","ép"],["▁n","af"],["▁na","f"],["▁g","rad"],["▁gr","ad"],["▁gra","d"],["▁m","ówi"],["▁po","zi"],["▁poz","i"],["▁c","erta"],["▁cer","ta"],["▁ni","eko"],["▁nie","ko"],["▁pu","țin"],["▁z","í"],["▁t","rou"],["▁tr","ou"],["▁tro","u"],["▁treb","ui"],["o","ru"],["or","u"],["en","sä"],["ens","ä"],["j","ena"],["je","na"],["jen","a"],["▁m","ama"],["▁ma","ma"],["▁mam","a"],["▁","ellen"],["▁el","len"],["▁elle","n"],["ü","ks"],["ük","s"],["▁Ε","ν"],["ši","mt"],["šim","t"],["u","ksen"],["uk","sen"],["uks","en"],["▁għ","ad"],["▁għa","d"],["▁sa","ada"],["▁efter","som"],["▁person","as"],["δ","ί"],["š","et"],["še","t"],["e","des"],["ed","es"],["ede","s"],["l","ust"],["lu","st"],["lus","t"],["▁h","ang"],["▁han","g"],["▁signi","fic"],["▁в","з"],["er","st"],["ers","t"],["▁S","al"],["▁Sa","l"],["g","te"],["gt","e"],["in","c"],["▁î","l"],["s","che"],["sch","e"],["ů","sob"],["pp","ortun"],["pport","un"],["▁pod","por"],["▁pu","ò"],["ys","tem"],["yst","em"],["än","der"],["änd","er"],["▁iz","manto"],["▁izm","anto"],["ζ","ί"],["a","sa"],["as","a"],["o","te"],["ot","e"],["▁","мя"],["▁м","я"],["ru","kt"],["▁tehd","ä"],["▁z","robi"],["▁","či"],["▁č","i"],["▁a","ps"],["▁ap","s"],["id","ente"],["ide","nte"],["iden","te"],["ident","e"],["▁con","st"],["▁cons","t"],["▁roh","kem"],["▁χρη","σιμοποι"],["о","т"],["к","ва"],["τη","ση"],["▁M","il"],["▁Mi","l"],["▁","кла"],["▁к","ла"],["kol","lu"],["koll","u"],["▁t","ych"],["▁ty","ch"],["▁des","de"],["▁ktor","í"],["š","el"],["še","l"],["▁n","æ"],["i","jek"],["ij","ek"],["ije","k"],["▁","esp"],["▁e","sp"],["▁es","p"],["▁с","па"],["▁сп","а"],["▁чу","в"],["▁le","id"],["▁svo","ju"],["▁svoj","u"],["um","b"],["▁Д","е"],["▁о","с"],["ch","es"],["che","s"],["e","les"],["el","es"],["ele","s"],["ло","жи"],["▁e","du"],["▁ed","u"],["▁s","ko"],["▁sk","o"],["▁d","ove"],["▁do","ve"],["▁dov","e"],["κ","ή"],["e","my"],["em","y"],["i","min"],["im","in"],["imi","n"],["i","ski"],["is","ki"],["isk","i"],["un","den"],["und","en"],["unde","n"],["▁P","ara"],["▁Pa","ra"],["▁Par","a"],["▁n","oss"],["▁no","ss"],["▁nos","s"],["▁te","ie"],["▁do","kon"],["▁dok","on"],["▁eu","rop"],["▁euro","p"],["t","uri"],["tu","ri"],["▁z","ac"],["▁za","c"],["▁ε","ργ"],["en","ten"],["ent","en"],["ente","n"],["▁ve","ik"],["▁vå","ra"],["▁vår","a"],["z","w"],["ž","a"],["os","ť"],["ani","u"],["▁N","är"],["▁Nä","r"],["el","ler"],["ell","er"],["elle","r"],["▁s","pun"],["▁sp","un"],["▁hy","vin"],["▁hyv","in"],["▁ih","mis"],["▁ihm","is"],["▁и","стори"],["n","il"],["ni","l"],["▁","žen"],["▁ž","en"],["▁že","n"],["▁m","ing"],["▁min","g"],["χ","ω"],["▁t","á"],["e","tek"],["et","ek"],["ete","k"],["но","ва"],["нов","а"],["▁","pă"],["▁p","ă"],["ti","in"],["▁b","omo"],["▁bo","mo"],["▁bom","o"],["▁cer","c"],["▁καθ","ώ"],["▁anc","ora"],["▁έχ","ουμε"],["к","ли"],["a","val"],["av","al"],["ava","l"],["▁n","oz"],["▁no","z"],["al","len"],["all","en"],["alle","n"],["▁g","led"],["▁gl","ed"],["▁m","agħ"],["▁ma","għ"],["▁mag","ħ"],["▁это","т"],["j","s"],["т","ни"],["▁","cie"],["▁c","ie"],["▁ci","e"],["▁pr","áv"],["▁prá","v"],["▁me","jor"],["▁po","sit"],["▁pos","it"],["▁pr","est"],["▁pre","st"],["▁pres","t"],["▁у","ча"],["▁ve","ľa"],["▁veľ","a"],["▁s","ulla"],["▁sul","la"],["im","ų"],["a","kin"],["ak","in"],["aki","n"],["▁A","pp"],["▁с","мо"],["▁ol","nud"],["▁exist","ă"],["▁re","aliz"],["▁real","iz"],["j","os"],["jo","s"],["λ","οι"],["λο","ι"],["▁б","ъ"],["t","ség"],["ts","ég"],["ми","те"],["▁p","ár"],["▁t","udo"],["▁tu","do"],["▁tud","o"],["▁nik","dy"],["▁sp","ôsob"],["d","ien"],["di","en"],["▁K","dy"],["▁al","ler"],["▁all","er"],["▁alle","r"],["ст","вительно"],["ň","a"],["k","ul"],["ku","l"],["é","ly"],["él","y"],["č","ka"],["▁","anos"],["▁a","nos"],["▁an","os"],["▁ano","s"],["e","tu"],["et","u"],["a","cji"],["ac","ji"],["oni","ų"],["▁m","ij"],["▁mi","j"],["т","ем"],["те","м"],["n","ess"],["ne","ss"],["nes","s"],["▁Il","s"],["▁J","ie"],["▁g","em"],["▁ge","m"],["▁z","elf"],["▁я","вля"],["▁val","st"],["n","at"],["na","t"],["▁O","p"],["▁ve","ć"],["▁","фор"],["▁ф","ор"],["▁B","ill"],["▁na","kon"],["▁nak","on"],["▁υπάρχ","ει"],["o","mu"],["om","u"],["▁","äl"],["▁ä","l"],["i","ego"],["ie","go"],["▁C","he"],["▁Ch","e"],["▁g","ut"],["▁gu","t"],["▁k","ész"],["▁про","це"],["ņ","a"],["▁Щ","е"],["j","ort"],["jo","rt"],["jor","t"],["lj","iv"],["▁","cij"],["▁c","ij"],["▁ci","j"],["▁we","il"],["▁müs","sen"],["ц","ь"],["g","ue"],["gu","e"],["▁t","uk"],["▁tu","k"],["▁v","ár"],["▁vá","r"],["▁par","l"],["▁τ","ώρα"],["▁хо","чу"],["śl","ę"],["μ","ού"],["μο","ύ"],["▁on","ly"],["▁ő","ket"],["▁ők","et"],["al","ment"],["▁mo","del"],["▁mod","el"],["▁tod","ėl"],["▁has","znál"],["et","tu"],["ett","u"],["▁p","ew"],["▁pe","w"],["▁te","ž"],["▁ke","res"],["▁ker","es"],["▁pog","led"],["▁про","гра"],["▁tele","fon"]],"added_tokens":["<unk>","<|nospeech|>","<pad>","<|endoftext|>","<|startoftranscript|>","<|pnc|>","<|nopnc|>","<|startofcontext|>","<|itn|>","<|noitn|>","<|timestamp|>","<|notimestamp|>","<|diarize|>","<|nodiarize|>","<|spkchange|>","<|audioseparator|>","<|emo:undefined|>","<|emo:neutral|>","<|emo:happy|>","<|emo:sad|>","<|emo:angry|>","<|unklang|>","<|predict_lang|>","<|nopredict_lang|>","<|aa|>","<|ab|>","<|af|>","<|ak|>","<|sq|>","<|am|>","<|ar|>","<|an|>","<|hy|>","<|as|>","<|av|>","<|ae|>","<|ay|>","<|az|>","<|bm|>","<|ba|>","<|eu|>","<|be|>","<|bn|>","<|bi|>","<|bs|>","<|br|>","<|bg|>","<|my|>","<|ca|>","<|ch|>","<|ce|>","<|ny|>","<|zh|>","<|cu|>","<|cv|>","<|kw|>","<|co|>","<|cr|>","<|hr|>","<|cs|>","<|da|>","<|dv|>","<|nl|>","<|dz|>","<|en|>","<|eo|>","<|et|>","<|ee|>","<|fo|>","<|fj|>","<|fi|>","<|fr|>","<|fy|>","<|ff|>","<|gd|>","<|gl|>","<|lg|>","<|ka|>","<|de|>","<|el|>","<|kl|>","<|gn|>","<|gu|>","<|ht|>","<|ha|>","<|he|>","<|hz|>","<|hi|>","<|ho|>","<|hu|>","<|is|>","<|io|>","<|ig|>","<|id|>","<|ia|>","<|ie|>","<|iu|>","<|ik|>","<|ga|>","<|it|>","<|ja|>","<|jv|>","<|kn|>","<|kr|>","<|ks|>","<|kk|>","<|km|>","<|ki|>","<|rw|>","<|ky|>","<|kv|>","<|kg|>","<|ko|>","<|kj|>","<|ku|>","<|lo|>","<|la|>","<|lv|>","<|li|>","<|ln|>","<|lt|>","<|lu|>","<|lb|>","<|mk|>","<|mg|>","<|ms|>","<|ml|>","<|mt|>","<|gv|>","<|mi|>","<|mr|>","<|mh|>","<|mn|>","<|na|>","<|nv|>","<|nd|>","<|nr|>","<|ng|>","<|ne|>","<|no|>","<|nb|>","<|nn|>","<|oc|>","<|oj|>","<|or|>","<|om|>","<|os|>","<|pi|>","<|ps|>","<|fa|>","<|pl|>","<|pt|>","<|pa|>","<|qu|>","<|ro|>","<|rm|>","<|rn|>","<|ru|>","<|se|>","<|sm|>","<|sg|>","<|sa|>","<|sc|>","<|sr|>","<|sn|>","<|sd|>","<|si|>","<|sk|>","<|sl|>","<|so|>","<|st|>","<|es|>","<|su|>","<|sw|>","<|ss|>","<|sv|>","<|tl|>","<|ty|>","<|tg|>","<|ta|>","<|tt|>","<|te|>","<|th|>","<|bo|>","<|ti|>","<|to|>","<|ts|>","<|tn|>","<|tr|>","<|tk|>","<|tw|>","<|ug|>","<|uk|>","<|ur|>","<|uz|>","<|ve|>","<|vi|>","<|vo|>","<|wa|>","<|cy|>","<|wo|>","<|xh|>","<|ii|>","<|yi|>","<|yo|>","<|za|>","<|zu|>","<|0|>","<|1|>","<|2|>","<|3|>","<|4|>","<|5|>","<|6|>","<|7|>","<|8|>","<|9|>","<|10|>","<|spk0|>","<|spk1|>","<|spk2|>","<|spk3|>","<|spk4|>","<|spk5|>","<|spk6|>","<|spk7|>","<|spk8|>","<|spk9|>","<|spk10|>","<|spk11|>","<|spk12|>","<|spk13|>","<|spk14|>","<|spk15|>","0","1","2","3","4","5","6","7","8","9","<|spltoken0|>","<|spltoken1|>","<|spltoken2|>","<|spltoken3|>","<|spltoken4|>","<|spltoken5|>","<|spltoken6|>","<|spltoken7|>","<|spltoken8|>","<|spltoken9|>","<|spltoken10|>","<|spltoken11|>","<|spltoken12|>","<|spltoken13|>","<|spltoken14|>","<|spltoken15|>","<|spltoken16|>","<|spltoken17|>","<|spltoken18|>","<|spltoken19|>","<|spltoken20|>","<|spltoken21|>","<|spltoken22|>","<|spltoken23|>","<|spltoken24|>","<|spltoken25|>","<|spltoken26|>","<|spltoken27|>","<|spltoken28|>","<|spltoken29|>","<blank>"]}